node {
  name: "global_step/Initializer/zeros"
  op: "Const"
  attr {
    key: "_class"
    value {
      list {
        s: "loc:@global_step"
      }
    }
  }
  attr {
    key: "_output_shapes"
    value {
      list {
        shape {
        }
      }
    }
  }
  attr {
    key: "dtype"
    value {
      type: DT_INT64
    }
  }
  attr {
    key: "value"
    value {
      tensor {
        dtype: DT_INT64
        tensor_shape {
        }
        int64_val: 0
      }
    }
  }
}
node {
  name: "global_step"
  op: "VariableV2"
  attr {
    key: "_class"
    value {
      list {
        s: "loc:@global_step"
      }
    }
  }
  attr {
    key: "_output_shapes"
    value {
      list {
        shape {
        }
      }
    }
  }
  attr {
    key: "container"
    value {
      s: ""
    }
  }
  attr {
    key: "dtype"
    value {
      type: DT_INT64
    }
  }
  attr {
    key: "shape"
    value {
      shape {
      }
    }
  }
  attr {
    key: "shared_name"
    value {
      s: ""
    }
  }
}
node {
  name: "global_step/Assign"
  op: "Assign"
  input: "global_step"
  input: "global_step/Initializer/zeros"
  attr {
    key: "T"
    value {
      type: DT_INT64
    }
  }
  attr {
    key: "_class"
    value {
      list {
        s: "loc:@global_step"
      }
    }
  }
  attr {
    key: "_output_shapes"
    value {
      list {
        shape {
        }
      }
    }
  }
  attr {
    key: "use_locking"
    value {
      b: true
    }
  }
  attr {
    key: "validate_shape"
    value {
      b: true
    }
  }
}
node {
  name: "global_step/read"
  op: "Identity"
  input: "global_step"
  attr {
    key: "T"
    value {
      type: DT_INT64
    }
  }
  attr {
    key: "_class"
    value {
      list {
        s: "loc:@global_step"
      }
    }
  }
  attr {
    key: "_output_shapes"
    value {
      list {
        shape {
        }
      }
    }
  }
}
node {
  name: "global_step/IsVariableInitialized"
  op: "IsVariableInitialized"
  input: "global_step"
  attr {
    key: "_class"
    value {
      list {
        s: "loc:@global_step"
      }
    }
  }
  attr {
    key: "_output_shapes"
    value {
      list {
        shape {
        }
      }
    }
  }
  attr {
    key: "dtype"
    value {
      type: DT_INT64
    }
  }
}
node {
  name: "global_step/cond/Switch"
  op: "Switch"
  input: "global_step/IsVariableInitialized"
  input: "global_step/IsVariableInitialized"
  attr {
    key: "T"
    value {
      type: DT_BOOL
    }
  }
  attr {
    key: "_output_shapes"
    value {
      list {
        shape {
        }
        shape {
        }
      }
    }
  }
}
node {
  name: "global_step/cond/switch_t"
  op: "Identity"
  input: "global_step/cond/Switch:1"
  attr {
    key: "T"
    value {
      type: DT_BOOL
    }
  }
  attr {
    key: "_output_shapes"
    value {
      list {
        shape {
        }
      }
    }
  }
}
node {
  name: "global_step/cond/switch_f"
  op: "Identity"
  input: "global_step/cond/Switch"
  attr {
    key: "T"
    value {
      type: DT_BOOL
    }
  }
  attr {
    key: "_output_shapes"
    value {
      list {
        shape {
        }
      }
    }
  }
}
node {
  name: "global_step/cond/pred_id"
  op: "Identity"
  input: "global_step/IsVariableInitialized"
  attr {
    key: "T"
    value {
      type: DT_BOOL
    }
  }
  attr {
    key: "_output_shapes"
    value {
      list {
        shape {
        }
      }
    }
  }
}
node {
  name: "global_step/cond/read"
  op: "Identity"
  input: "global_step/cond/read/Switch:1"
  attr {
    key: "T"
    value {
      type: DT_INT64
    }
  }
  attr {
    key: "_output_shapes"
    value {
      list {
        shape {
        }
      }
    }
  }
}
node {
  name: "global_step/cond/read/Switch"
  op: "RefSwitch"
  input: "global_step"
  input: "global_step/cond/pred_id"
  attr {
    key: "T"
    value {
      type: DT_INT64
    }
  }
  attr {
    key: "_class"
    value {
      list {
        s: "loc:@global_step"
      }
    }
  }
  attr {
    key: "_output_shapes"
    value {
      list {
        shape {
        }
        shape {
        }
      }
    }
  }
}
node {
  name: "global_step/cond/Switch_1"
  op: "Switch"
  input: "global_step/Initializer/zeros"
  input: "global_step/cond/pred_id"
  attr {
    key: "T"
    value {
      type: DT_INT64
    }
  }
  attr {
    key: "_class"
    value {
      list {
        s: "loc:@global_step"
      }
    }
  }
  attr {
    key: "_output_shapes"
    value {
      list {
        shape {
        }
        shape {
        }
      }
    }
  }
}
node {
  name: "global_step/cond/Merge"
  op: "Merge"
  input: "global_step/cond/Switch_1"
  input: "global_step/cond/read"
  attr {
    key: "N"
    value {
      i: 2
    }
  }
  attr {
    key: "T"
    value {
      type: DT_INT64
    }
  }
  attr {
    key: "_output_shapes"
    value {
      list {
        shape {
        }
        shape {
        }
      }
    }
  }
}
node {
  name: "global_step/add/y"
  op: "Const"
  attr {
    key: "_output_shapes"
    value {
      list {
        shape {
        }
      }
    }
  }
  attr {
    key: "dtype"
    value {
      type: DT_INT64
    }
  }
  attr {
    key: "value"
    value {
      tensor {
        dtype: DT_INT64
        tensor_shape {
        }
        int64_val: 0
      }
    }
  }
}
node {
  name: "global_step/add"
  op: "Add"
  input: "global_step/cond/Merge"
  input: "global_step/add/y"
  attr {
    key: "T"
    value {
      type: DT_INT64
    }
  }
  attr {
    key: "_output_shapes"
    value {
      list {
        shape {
        }
      }
    }
  }
}
node {
  name: "tensors/component_0"
  op: "Const"
  device: "/device:CPU:0"
  attr {
    key: "_output_shapes"
    value {
      list {
        shape {
          dim {
            size: 2000
          }
        }
      }
    }
  }
  attr {
    key: "dtype"
    value {
      type: DT_DOUBLE
    }
  }
  attr {
    key: "value"
    value {
      tensor {
        dtype: DT_DOUBLE
        tensor_shape {
          dim {
            size: 2000
          }
        }
        tensor_content: "\000\000\000\000Pn\341@\000\000\000\000\000^\272@\000\000\000\000\240\375\334@\000\000\000\000`Z\325@\000\000\000\000`\337\332@\000\000\000\000\240*\344@\000\000\000\000`\213\344@\000\000\000\000\200\306\323@\000\000\000\000@\256\324@\000\000\000\000\200\371\266@\000\000\000\000\240I\334@\000\000\000\000@\001\340@\000\000\000\000\000\260\323@\000\000\000\000`\211\331@\000\000\000\000\000^\312@\000\000\000\000\000\303\276@\000\000\000\000\340&\321@\000\000\000\000\300\337\324@\000\000\000\0000W\342@\000\000\000\000`\302\337@\000\000\000\000\300\317\310@\000\000\000\000@\241\305@\000\000\000\000\340D\327@\000\000\000\000\000\224\301@\000\000\000\000`r\330@\000\000\000\000`g\324@\000\000\000\000\240\023\343@\000\000\000\000\340\017\340@\000\000\000\000\260\273\345@\000\000\000\000@\235\326@\000\000\000\000\300\227\315@\000\000\000\000\000^\332@\000\000\000\000\000\203\334@\000\000\000\000\000\224\301@\000\000\000\000\2005\332@\000\000\000\000\3600\342@\000\000\000\000\360`\350@\000\000\000\000\000^\272@\000\000\000\000\200\344\340@\000\000\000\000\000\222\317@\000\000\000\000\300>\346@\000\000\000\000\200+\310@\000\000\000\000`\240\332@\000\000\000\000`\346\346@\000\000\000\000\330<\365@\000\000\000\000\300\212\345@\000\000\000\0000\332\343@\000\000\000\000\340y\345@\000\000\000\000\000^\312@\000\000\000\000\000\371\325@\000\000\000\000`\235\324@\000\000\000\000`\235\324@\000\000\000\000\300\334\327@\000\000\000\000 \207\331@\000\000\000\000\2407\334@\000\000\000\000\340C\325@\000\000\000\000\000u\342@\000\000\000\000\300\322\316@\000\000\000\000`\234\333@\000\000\000\000\000^\272@\000\000\000\000\000^\312@\000\000\000\000p\305\342@\000\000\000\000 \216\325@\000\000\000\000@\014\304@\000\000\000\000\200\370\335@\000\000\000\000\3402\327@\000\000\000\000 \216\336@\000\000\000\000@z\330@\000\000\000\000\200L\333@\000\000\000\000\000(\272@\000\000\000\000\300\021\326@\000\000\000\000`D\337@\000\000\000\000\000\224\301@\000\000\000\000\300\215\333@\000\000\000\000@\210\331@\000\000\000\000@\232\331@\000\000\000\000@F\323@\000\000\000\0000G\346@\000\000\000\000\260\370\361@\000\000\000\000\200^\322@\000\000\000\000\000\224\301@\000\000\000\000\300\247\331@\000\000\000\000\200\031\350@\000\000\000\000\300z\340@\000\000\000\000\240V\333@\000\000\000\000\000^\312@\000\000\000\000 S\335@\000\000\000\000`e\320@\000\000\000\000\340\224\325@\000\000\000\000`\315\341@\000\000\000\000\240\301\331@\000\000\000\000\000\376\306@\000\000\000\000\000\374\302@\000\000\000\000\200\303\337@\000\000\000\000\000\224\301@\000\000\000\000\200d\325@\000\000\000\000\360\032\343@\000\000\000\000\200\327\332@\000\000\000\000\020i\344@\000\000\000\000@J\313@\000\000\000\000@,\345@\000\000\000\000\300\304\315@\000\000\000\000`\031\332@\000\000\000\000\000\371\305@\000\000\000\000@\351\336@\000\000\000\0000\n\352@\000\000\000\000\000u\342@\000\000\000\000\000^\272@\000\000\000\000P|\353@\000\000\000\000@4\314@\000\000\000\000`3\330@\000\000\000\000\340&\321@\000\000\000\000\000\303\316@\000\000\000\000`_\337@\000\000\000\000\000\005\334@\000\000\000\000\000\332\337@\000\000\000\000\300r\322@\000\000\000\000`\361\341@\000\000\000\000@\232\331@\000\000\000\000\240\263\330@\000\000\000\000\2404\326@\000\000\000\000\000V\334@\000\000\000\000\340\006\331@\000\000\000\0000Z\350@\000\000\000\000\240v\323@\000\000\000\000\0001\272@\000\000\000\000`\272\330@\000\000\000\000@\363\347@\000\000\000\000\270c\364@\000\000\000\000 \332\335@\000\000\000\000 \342\333@\000\000\000\000\000^\312@\000\000\000\000\3404\353@\000\000\000\000\000\233\337@\000\000\000\000\200W\317@\000\000\000\000\200\306\323@\000\000\000\000\000\221\335@\000\000\000\000\000\224\301@\000\000\000\000\200u\323@\000\000\000\000`\340\323@\000\000\000\000\000u\342@\000\000\000\000\200|\350@\000\000\000\000\340<\351@\000\000\000\000\200\334\333@\000\000\000\000\200%\305@\000\000\000\000\200\004\313@\000\000\000\000 V\341@\000\000\000\000`\355\322@\000\000\000\000\200\241\261@\000\000\000\000\200\201\271@\000\000\000\000@\233\313@\000\000\000\000\340\232\350@\000\000\000\000\340\013\341@\000\000\000\0000\313\351@\000\000\000\000\200\327\301@\000\000\000\000 \002\324@\000\000\000\000\340\270\325@\000\000\000\000\220I\344@\000\000\000\000\020\022\341@\000\000\000\000@\204\321@\000\000\000\000 \236\321@\000\000\000\000\300\305\326@\000\000\000\000\000\224\301@\000\000\000\0000\261\342@\000\000\000\000\300A\343@\000\000\000\000\200d\325@\000\000\000\000\200\257\342@\000\000\000\000\200)\335@\000\000\000\000\000\224\301@\000\000\000\000\000`\325@\000\000\000\000\240?\332@\000\000\000\000\340J\321@\000\000\000\000\200\t\314@\000\000\000\000H\032\360@\000\000\000\000\020H\341@\000\000\000\000`\254\327@\000\000\000\000\340\250\320@\000\000\000\000\220\304\347@\000\000\000\000\000^\332@\000\000\000\000@\024\302@\000\000\000\000@1\317@\000\000\000\000\020~\341@\000\000\000\000 a\325@\000\000\000\000@\322\315@\000\000\000\000 Z\331@\000\000\000\000 \222\324@\000\000\000\000 \341\331@\000\000\000\000\200\271\335@\000\000\000\000\300\246\307@\000\000\000\000\300\033\350@\000\000\000\000\200>\332@\000\000\000\000\000?\353@\000\000\000\000`\326\321@\000\000\000\000`\207\336@\000\000\000\000\220\221\344@\000\000\000\000\000\177\335@\000\000\000\000\300]\305@\000\000\000\000\000\004\332@\000\000\000\000\200\272\326@\000\000\000\000\200+\330@\000\000\000\000@\206\345@\000\000\000\000`1\324@\000\000\000\000\200%\305@\000\000\000\000\200\230\261@\000\000\000\000\300\233\314@\000\000\000\000\340\261\320@\000\000\000\000\3002\331@\000\000\000\000\240\324\322@\000\000\000\000\000^\272@\000\000\000\000@0\315@\000\000\000\000\000\224\301@\000\000\000\000@\316\305@\000\000\000\000P\235\356@\000\000\000\000`4\332@\000\000\000\000\300\345\347@\000\000\000\000\200_\335@\000\000\000\000\300z\360@\000\000\000\000\300\377\325@\000\000\000\000\000\272\336@\000\000\000\000\240\227\346@\000\000\000\000@\256\344@\000\000\000\000\200\306\323@\000\000\000\000@\232\331@\000\000\000\000\000\320\335@\000\000\000\000\340\025\354@\000\000\000\000`p\324@\000\000\000\000`H\345@\000\000\000\000\3405\324@\000\000\000\0000\302\360@\000\000\000\000\000\335\314@\000\000\000\000@\232\331@\000\000\000\000\000\224\301@\000\000\000\000\260\013\355@\000\000\000\000`M\337@\000\000\000\000\000Q\342@\000\000\000\000\000\351\300@\000\000\000\000\220V\343@\000\000\000\000\240\200\325@\000\000\000\000\340\035\332@\000\000\000\000`}\334@\000\000\000\000@\312\326@\000\000\000\000\240z\353@\000\000\000\000\220P\340@\000\000\000\000\240\263\330@\000\000\000\000\000\270\332@\000\000\000\000 \254\342@\000\000\000\000`\315\341@\000\000\000\000\000\303\336@\000\000\000\000\000\367\301@\000\000\000\000`D\337@\000\000\000\000\240\371\344@\000\000\000\000\300\310\323@\000\000\000\000\240\272\335@\000\000\000\000@\215\341@\000\000\000\000@*\332@\000\000\000\000\000\274\320@\000\000\000\000\3206\347@\000\000\000\000\000\256\330@\000\000\000\000\3201\346@\000\000\000\000\300\227\335@\000\000\000\000\200\306\323@\000\000\000\000\000S\337@\000\000\000\000\200\262\330@\000\000\000\000\340\007\333@\000\000\000\000\240\224\320@\000\000\000\000\300z\360@\000\000\000\000@\264\327@\000\000\000\000\000\004\332@\000\000\000\000\000^\312@\000\000\000\000\000\371\305@\000\000\000\000@R\320@\000\000\000\000\000\347\276@\000\000\000\000\000:\321@\000\000\000\000`1\324@\000\000\000\000\000\362\311@\000\000\000\000\300z\360@\000\000\000\000\360s\341@\000\000\000\000\340<\351@\000\000\000\000\000\371\345@\000\000\000\000\200+\330@\000\000\000\000 \227\336@\000\000\000\000\300\277\323@\000\000\000\000\000\224\301@\000\000\000\000\260\213\350@\000\000\000\000\000^\332@\000\000\000\000 \207\320@\000\000\000\000\300\202\327@\000\000\000\000 6\331@\000\000\000\000\340\303\320@\000\000\000\000\320\031\354@\000\000\000\0000 \340@\000\000\000\000\000\224\301@\000\000\000\000\340e\341@\000\000\000\000\000\034\335@\000\000\000\000PY\344@\000\000\000\000\000\300\310@\000\000\000\000\3407\330@\000\000\000\000`\213\344@\000\000\000\000`H\356@\000\000\000\000\340\315\322@\000\000\000\000 j\345@\000\000\000\000\000^\312@\000\000\000\000 \317\351@\000\000\000\000\200N\306@\000\000\000\000\200\036\300@\000\000\000\000\000^\312@\000\000\000\000\000g\321@\000\000\000\000\360\376\340@\000\000\000\000\200j\330@\000\000\000\000\000\217\311@\000\000\000\000@\255\322@\000\000\000\000\3008\314@\000\000\000\000\200\261\306@\000\000\000\000@\212\344@\000\000\000\000\000c\342@\000\000\000\000 \327\327@\000\000\000\000 \273\325@\000\000\000\000\300\366\305@\000\000\000\000\000\274\311@\000\000\000\000\200\257\333@\000\000\000\000\240\234\327@\000\000\000\000\000W\336@\000\000\000\000\240\323\320@\000\000\000\000 a\345@\000\000\000\000\000^\312@\000\000\000\000\250b\374@\000\000\000\000\300z\340@\000\000\000\000\320\007\343@\000\000\000\000\000\260\343@\000\000\000\000 \302\332@\000\000\000\000\340\007\342@\000\000\000\000\360\032\343@\000\000\000\000\320T\355@\000\000\000\000\300\312\327@\000\000\000\000\300q\320@\000\000\000\000`\206\334@\000\000\000\000@W\332@\000\000\000\000@\221\311@\000\000\000\000@\014\304@\000\000\000\000\3000\305@\000\000\000\000\000\343\306@\000\000\000\000\200\207\323@\000\000\000\000\300r\333@\000\000\000\000\000V\303@\000\000\000\000\240l\341@\000\000\000\000\200\361\330@\000\000\000\0000\311\345@\000\000\000\000\000\260\343@\000\000\000\000\020\025\347@\000\000\000\000\000\302\314@\000\000\000\000\240\302\333@\000\000\000\000\250\304\361@\000\000\000\000\000V\323@\000\000\000\000\240\323\331@\000\000\000\000@\312\317@\000\000\000\000\260d\342@\000\000\000\000\000\224\301@\000\000\000\000\340f\323@\000\000\000\000\200+\350@\000\000\000\000\020y\351@\000\000\000\000\300\274\317@\000\000\000\0000{\342@\000\000\000\000\240\315\346@\000\000\000\000\200\212\300@\000\000\000\000\000\213\301@\000\000\000\000@A\322@\000\000\000\000\220M\363@\000\000\000\000\340\232\330@\000\000\000\000\300w\314@\000\000\000\000 \254\322@\000\000\000\000@\255\342@\000\000\000\000\300\255\323@\000\000\000\000\000`\316@\000\000\000\000 \347\323@\000\000\000\000\300#\337@\000\000\000\000@\241\305@\000\000\000\000 \035\324@\000\000\000\000P\350\342@\000\000\000\000\000^\312@\000\000\000\000\300\327\306@\000\000\000\000\240%\323@\000\000\000\000\000^\312@\000\000\000\000\000\272\336@\000\000\000\000\200\364\276@\000\000\000\000`\277\320@\000\000\000\000\300\373\306@\000\000\000\000\000^\312@\000\000\000\000\220\321\346@\000\000\000\000\000f\330@\000\000\000\000\220\200\346@\000\000\000\000\3201\346@\000\000\000\000\240\310\336@\000\000\000\000@\204\332@\000\000\000\000\240?\332@\000\000\000\000\300\247\311@\000\000\000\000\000^\312@\000\000\000\000\240R\334@\000\000\000\000\240\227\326@\000\000\000\000@\273\343@\000\000\000\000\260\303\343@\000\000\000\000\200k\312@\000\000\000\000\200\220\334@\000\000\000\000\200\034\305@\000\000\000\000@\232\331@\000\000\000\000\000\371\325@\000\000\000\000\200d\325@\000\000\000\000\000\335\323@\000\000\000\000\200\276\336@\000\000\000\000\240\266\325@\000\000\000\000\300P\337@\000\000\000\000\340#\335@\000\000\000\000@\301\306@\000\000\000\000\240\250\324@\000\000\000\000`6\345@\000\000\000\000\300v\312@\000\000\000\000@\265\331@\000\000\000\000\300\332\354@\000\000\000\000\300\360\313@\000\000\000\000\340\255\321@\000\000\000\000\200\036\320@\000\000\000\000\300\335\320@\000\000\000\000\3004\304@\000\000\000\000@\367\317@\000\000\000\000`H\356@\000\000\000\000\240\200\325@\000\000\000\000\300|\324@\000\000\000\000\300D\351@\000\000\000\000 \t\331@\000\000\000\000\340\002\341@\000\000\000\000\000\224\301@\000\000\000\000\300z\320@\000\000\000\000\200\257\322@\000\000\000\000\000.\264@\000\000\000\000\000\335\314@\000\000\000\000\200\207\323@\000\000\000\000`\206\323@\000\000\000\000\200\350\330@\000\000\000\000\200d\325@\000\000\000\000\300\236\320@\000\000\000\000 y\350@\000\000\000\000\000\335\314@\000\000\000\000\000\224\301@\000\000\000\000\200\312\302@\000\000\000\000\000\272\336@\000\000\000\000@\267\304@\000\000\000\000pp\354@\000\000\000\0000\302\360@\000\000\000\000@\351\325@\000\000\000\000\240\007\326@\000\000\000\000 \317\351@\000\000\000\000\340*\351@\000\000\000\000\240\273\346@\000\000\000\000\200\034\336@\000\000\000\000P\351\344@\000\000\000\000\240*\335@\000\000\000\000\000\224\301@\000\000\000\000\340\326\333@\000\000\000\000\320\022\347@\000\000\000\000\300\276\332@\000\000\000\000@\232\331@\000\000\000\000\200v\336@\000\000\000\000@\004\337@\000\000\000\000\000\362\331@\000\000\000\000`\201\322@\000\000\000\000P\006\340@\000\000\000\000`\225\337@\000\000\000\000\200H\334@\000\000\000\000\240y\331@\000\000\000\000\240\326\337@\000\000\000\000\300\354\303@\000\000\000\000\000\371\345@\000\000\000\000\260O\345@\000\000\000\000\340\007\333@\000\000\000\000\300\002\303@\000\000\000\000\220\200\346@\000\000\000\000@\232\331@\000\000\000\000\000^\312@\000\000\000\000\300[\321@\000\000\000\000\020L\340@\000\000\000\000\200u\274@\000\000\000\000\000\370\323@\000\000\000\000\2403\324@\000\000\000\000\200O\310@\000\000\000\000\200[\336@\000\000\000\000\240\310\336@\000\000\000\000\240\367\340@\000\000\000\000\200C\302@\000\000\000\000\300\247\340@\000\000\000\000\200_\335@\000\000\000\000\000\224\301@\000\000\000\000\240\007\357@\000\000\000\000`n\320@\000\000\000\000P\003\343@\000\000\000\000@4\343@\000\000\000\000@\310\322@\000\000\000\000\260{\354@\000\000\000\000\220\215\345@\000\000\000\000P\205\353@\000\000\000\000\320\261\361@\000\000\000\000\000\366\350@\000\000\000\000 \023\333@\000\000\000\000\300\334\327@\000\000\000\000 \326\336@\000\000\000\000\000\257\332@\000\000\000\000\000I\315@\000\000\000\000@y\306@\000\000\000\000\300;\320@\000\000\000\000`Q\345@\000\000\000\000\2005\332@\000\000\000\000`I\327@\000\000\000\000\200\261\306@\000\000\000\000`X\341@\000\000\000\000\000\343\306@\000\000\000\000\000\353\324@\000\000\000\000 \261\323@\000\000\000\000\240\323\331@\000\000\000\000\300\337\344@\000\000\000\000\240\222\325@\000\000\000\000\240\270\360@\000\000\000\000\300\251\344@\000\000\000\000\200\217\341@\000\000\000\000\200\033\274@\000\000\000\000\300\201\325@\000\000\000\000\300\035\323@\000\000\000\000\000\224\301@\000\000\000\000\300^\327@\000\000\000\000\300\215\333@\000\000\000\000\000^\312@\000\000\000\000@\312\317@\000\000\000\000\240\323\331@\000\000\000\000@\024\322@\000\000\000\000\200H\323@\000\000\000\000 \222\335@\000\000\000\000\300\345\327@\000\000\000\000\200\255\327@\000\000\000\000`\224\335@\000\000\000\000\360\222\351@\000\000\000\000\260d\342@\000\000\000\000\300b\317@\000\000\000\000\220\271\354@\000\000\000\000@\310\302@\000\000\000\000 p\330@\000\000\000\000\340\266\341@\000\000\000\000 /\324@\000\000\000\000\000\224\301@\000\000\000\000\000\312\332@\000\000\000\000\240\200\325@\000\000\000\000\340]\323@\000\000\000\000\000\243\304@\000\000\000\000\000>\331@\000\000\000\000@B\315@\000\000\000\000\020\343\345@\000\000\000\000\000I\324@\000\000\000\000\220\215\345@\000\000\000\000\340J\321@\000\000\000\000\200\220\334@\000\000\000\000\200\025\340@\000\000\000\000\2404\326@\000\000\000\000\200\215\317@\000\000\000\000@U\306@\000\000\000\000@\210\331@\000\000\000\000\200\t\263@\000\000\000\000\200x\340@\000\000\000\000\340\263\335@\000\000\000\000\300\325\333@\000\000\000\000\000\371\305@\000\000\000\000\300\310\334@\000\000\000\000`\t\325@\000\000\000\000\000\371\325@\000\000\000\000\300I\301@\000\000\000\000\220\215\356@\000\000\000\000\200D\335@\000\000\000\000\260\364\342@\000\000\000\000@\206\316@\000\000\000\000 \301\330@\000\000\000\000\200\275\323@\000\000\000\000\340\367\325@\000\000\000\000\000\260\334@\000\000\000\000\240\r\340@\000\000\000\000@\315\363@\000\000\000\000\200\204\337@\000\000\000\000\200\"\350@\000\000\000\000\360\367\344@\000\000\000\000h\255\364@\000\000\000\000p\334\343@\000\000\000\000\240\230\330@\000\000\000\000\200\323\342@\000\000\000\000\240}\330@\000\000\000\000p\317\344@\000\000\000\000`\315\341@\000\000\000\000P\022\346@\000\000\000\000@\013\333@\000\000\000\000\300\216\324@\000\000\000\000`\207\336@\000\000\000\000\000\004\332@\000\000\000\000\240\323\331@\000\000\000\000\000\320\335@\000\000\000\000\300\260\351@\000\000\000\000@\242\327@\000\000\000\000\200\344\340@\000\000\000\000\3404\353@\000\000\000\000 x\337@\000\000\000\000\000\224\301@\000\000\000\000\300z\320@\000\000\000\000\200\004\313@\000\000\000\000 \247\332@\000\000\000\000\200j\310@\000\000\000\000\000\224\301@\000\000\000\000@\312\317@\000\000\000\000P\275\346@\000\000\000\000\200E\317@\000\000\000\000@G\325@\000\000\000\000\200\213\313@\000\000\000\000`1\324@\000\000\000\000\000a\347@\000\000\000\000\020~\341@\000\000\000\000\220S\346@\000\000\000\0000 \340@\000\000\000\000\340\234\323@\000\000\000\000 \240\336@\000\000\000\000\200$\343@\000\000\000\00003\342@\000\000\000\000\340\207\346@\000\000\000\000\300 \320@\000\000\000\000\340p\336@\000\000\000\000\000\004\332@\000\000\000\000\340K\334@\000\000\000\000Pz\347@\000\000\000\000`\203\326@\000\000\000\000\000\325\316@\000\000\000\000\200e\327@\000\000\000\000\240[\323@\000\000\000\000\240\030\355@\000\000\000\000\240\257\320@\000\000\000\000\000^\312@\000\000\000\000\200g\333@\000\000\000\000\200\351\301@\000\000\000\000 \244\344@\000\000\000\000\240\200\325@\000\000\000\000@n\342@\000\000\000\000\220`\345@\000\000\000\000@\246\306@\000\000\000\000\260o\346@\000\000\000\000@\331\320@\000\000\000\000\320\254\340@\000\000\000\000\000^\312@\000\000\000\000`\240\332@\000\000\000\000\000\027\303@\000\000\000\000\000^\272@\000\000\000\000\340\220\326@\000\000\000\000\000W\325@\000\000\000\000\340\260\327@\000\000\000\000\340f\323@\000\000\000\000\300\025\305@\000\000\000\000\320\344\344@\000\000\000\0000v\341@\000\000\000\000@\224\337@\000\000\000\0000\325\353@\000\000\000\000\000u\342@\000\000\000\000 q\332@\000\000\000\000\000\224\301@\000\000\000\000`1\324@\000\000\000\000\320\367\346@\000\000\000\000\340\000\337@\000\000\000\0008\036\360@\000\000\000\000\000\257\332@\000\000\000\000\000\224\301@\000\000\000\000\200\306\303@\000\000\000\000\340g\345@\000\000\000\000`\t\325@\000\000\000\000\340n\321@\000\000\000\000\240\361\337@\000\000\000\000\340\017\340@\000\000\000\000\360\213\355@\000\000\000\000\200$\323@\000\000\000\000\240\007\357@\000\000\000\000\200\032\352@\000\000\000\000`\322\322@\000\000\000\000\340\251\322@\000\000\000\000\000\004\332@\000\000\000\000\000\000\342@\000\000\000\000\300z\320@\000\000\000\000\240\326\337@\000\000\000\000\020~\341@\000\000\000\000\000V\274@\000\000\000\000\000\276\315@\000\000\000\000\300\337\324@\000\000\000\000@\351\336@\000\000\000\000\300\035\323@\000\000\000\000\200\257\322@\000\000\000\000\000^\332@\000\000\000\000\320\021\345@\000\000\000\000\300\346\311@\000\000\000\000\200+\310@\000\000\000\000\220\251\347@\000\000\000\000\340\224\325@\000\000\000\000\340\365\321@\000\000\000\000\300\332\354@\000\000\000\000\200\350\310@\000\000\000\000\300\367\327@\000\000\000\000\000\224\301@\000\000\000\000\000Y\331@\000\000\000\000\300\013\343@\000\000\000\000\300#\337@\000\000\000\000\000u\342@\000\000\000\000\000u\342@\000\000\000\000\000\256\270@\000\000\000\000\000\224\301@\000\000\000\000`\366\322@\000\000\000\000\260d\342@\000\000\000\000`\235\324@\000\000\000\000@\204\332@\000\000\000\000\200\212\331@\000\000\000\000\200i\317@\000\000\000\000\000^\312@\000\000\000\000\220)\354@\000\000\000\000\340\267\323@\000\000\000\000\000\320\335@\000\000\000\000\000\000\342@\000\000\000\000\300I\321@\000\000\000\000`\036\322@\000\000\000\000\000\263\331@\000\000\000\000\200=\330@\000\000\000\000\260\231\340@\000\000\000\000\000^\312@\000\000\000\000\240x\327@\000\000\000\000@,\316@\000\000\000\000\260?\340@\000\000\000\000\300;\331@\000\000\000\000\200\"\350@\000\000\000\000@\322\344@\000\000\000\000 \313\341@\000\000\000\000\000\224\301@\000\000\000\000`g\335@\000\000\000\000\200\331\336@\000\000\000\000\200\335\315@\000\000\000\000@\255\333@\000\000\000\000 \232\322@\000\000\000\000\000\371\345@\000\000\000\000 \023\333@\000\000\000\000\200+\330@\000\000\000\000\000V\314@\000\000\000\000\340\017\340@\000\000\000\000\240^\331@\000\000\000\000\240\023\343@\000\000\000\000P\272\340@\000\000\000\000@\224\337@\000\000\000\000`\355\333@\000\000\000\000\000u\313@\000\000\000\000\240N\324@\000\000\000\000\300e\334@\000\000\000\000\240\224\331@\000\000\000\000\300\307\332@\000\000\000\000\000\224\301@\000\000\000\000\340\310\341@\000\000\000\000\300\323\327@\000\000\000\000\200G\321@\000\000\000\000\000\224\301@\000\000\000\000\000^\272@\000\000\000\000@c\327@\000\000\000\000\220\314\345@\000\000\000\000 \231\340@\000\000\000\000\000\333\310@\000\000\000\000\240\035\336@\000\000\000\000\240V\322@\000\000\000\000\300\360\313@\000\000\000\000\340o\343@\000\000\000\000 \276\322@\000\000\000\000\300;\311@\000\000\000\000\300\200\323@\000\000\000\000\300P\317@\000\000\000\000\200\235\333@\000\000\000\000\260\364\342@\000\000\000\000\300\024\343@\000\000\000\000\300\334\327@\000\000\000\000\240\232\334@\000\000\000\000\300\347\313@\000\000\000\000\240P\330@\000\000\000\000\000\276\304@\000\000\000\000\240\347\324@\000\000\000\000\300\267\325@\000\000\000\000 #\347@\000\000\000\000\300\007\335@\000\000\000\000P\332\341@\000\000\000\000\200\270\322@\000\000\000\000\000\n\324@\000\000\000\000\260e\344@\000\000\000\000\020y\340@\000\000\000\000\300\036\325@\000\000\000\000\000\n\335@\000\000\000\000\220\224\352@\000\000\000\000\240\261\335@\000\000\000\000\000\224\301@\000\000\000\000\300\274\357@\000\000\000\000@\342\340@\000\000\000\000\000,\351@\000\000\000\000`|\321@\000\000\000\000`-\325@\000\000\000\000 \364\322@\000\000\000\000\000^\312@\000\000\000\000 \260\341@\000\000\000\000\320\\\342@\000\000\000\000\000\031\307@\000\000\000\000\300%\332@\000\000\000\000\360\317\345@\000\000\000\000\220?\342@\000\000\000\000`r\330@\000\000\000\000`\222\320@\000\000\000\000\220\213\352@\000\000\000\000@\312\326@\000\000\000\000P\031\342@\000\000\000\000\340\255\321@\000\000\000\0000W\342@\000\000\000\000 ]\337@\000\000\000\000\000\224\301@\000\000\000\000@\034\360@\000\000\000\000@\325\312@\000\000\000\000 n\344@\000\000\000\000\000\016\334@\000\000\000\000`\t\325@\000\000\000\000 \004\330@\000\000\000\000`\251\321@\000\000\000\000p\344\341@\000\000\000\000\300X\344@\000\000\000\000`\023\327@\000\000\000\000\300|\304@\000\000\000\000 \034\333@\000\000\000\000`\\\331@\000\000\000\000`\326\321@\000\000\000\000`<\330@\000\000\000\000@]\324@\000\000\000\000\340\013\341@\000\000\000\000\360\247\346@\000\000\000\000\3600\342@\000\000\000\000@l\307@\000\000\000\000\300^\327@\000\000\000\000 \353\342@\000\000\000\000\000\006\276@\000\000\000\000`\305\323@\000\000\000\000\340\351\335@\000\000\000\000\020~\341@\000\000\000\000\200\306\303@\000\000\000\000\300\360\342@\000\000\000\000`D\337@\000\000\000\000\340\272\331@\000\000\000\000P0\343@\000\000\000\000\200q\335@\000\000\000\000\300V\331@\000\000\000\000\000)\314@\000\000\000\000@\301\326@\000\000\000\000\000\224\301@\000\000\000\000\3002\320@\000\000\000\000\340\013\341@\000\000\000\000 i\334@\000\000\000\000\240\304\337@\000\000\000\000`\343\331@\000\000\000\000@\357\310@\000\000\000\000\200+\310@\000\000\000\000\200\036\300@\000\000\000\0000 \340@\000\000\000\000\240\022\352@\000\000\000\000\000\034\335@\000\000\000\000\240%\334@\000\000\000\000`\035\320@\000\000\000\000`J\320@\000\000\000\000\360\355\353@\000\000\000\000\000^\312@\000\000\000\0000h\360@\000\000\000\000\300\343\334@\000\000\000\000 \247\332@\000\000\000\000\200\215\317@\000\000\000\000\000\242\262@\000\000\000\000`\360\330@\000\000\000\000 \233\324@\000\000\000\000p]\352@\000\000\000\000\200}\321@\000\000\000\000 \212\346@\000\000\000\000 \276\333@\000\000\000\000\000g\272@\000\000\000\000\000\317\313@\000\000\000\000`n\331@\000\000\000\000 \212\346@\000\000\000\000 \327\327@\000\000\000\000\340\232\330@\000\000\000\000\000^\312@\000\000\000\000@\027\330@\000\000\000\000\020I\343@\000\000\000\000`s\341@\000\000\000\000\300\354\343@\000\000\000\000`J\331@\000\000\000\000\200\335\324@\000\000\000\000\360/\340@\000\000\000\000\240f\327@\000\000\000\000\220\373\340@\000\000\000\000\220\207\342@\000\000\000\000\200{\346@\000\000\000\000\200c\334@\000\000\000\000\000\357\303@\000\000\000\000 \273\325@\000\000\000\000\300]\305@\000\000\000\000\200+\310@\000\000\000\000\020$\352@\000\000\000\000\240\322\327@\000\000\000\000\300z\340@\000\000\000\000\240[\343@\000\000\000\000@\306\327@\000\000\000\000`\315\341@\000\000\000\000@\232\331@\000\000\000\000@\001\300@\000\000\000\000@`\321@\000\000\000\000\300\321\323@\000\000\000\000\200\n\325@\000\000\000\000\360\217\343@\000\000\000\000\000^\312@\000\000\000\000@\233\313@\000\000\000\000`\006\330@\000\000\000\000\240\333\347@\000\000\000\000\000*\325@\000\000\000\000\000\224\301@\000\000\000\000\200\223\311@\000\000\000\000\340\010\335@\000\000\000\000\200\306\343@\000\000\000\000 \306\320@\000\000\000\000\220V\343@\000\000\000\000\000\263\331@\000\000\000\000\200E\326@\000\000\000\000\340S\341@\000\000\000\000`\350\332@\000\000\000\000\000^\312@\000\000\000\000\300k\306@\000\000\000\000 b\327@\000\000\000\000 \004\330@\000\000\000\000\240w\325@\000\000\000\000\340^\325@\000\000\000\000@\006\312@\000\000\000\000@R\320@\000\000\000\000\000^\332@\000\000\000\000\340\017\340@\000\000\000\000\200\306\323@\000\000\000\000\300\350\304@\000\000\000\000\360\247\346@\000\000\000\000\240\347\344@\000\000\000\000 \004\330@\000\000\000\000`R\327@\000\000\000\000\000u\342@\000\000\000\000\340\311\343@\000\000\000\000\320\344\344@\000\000\000\000`\224\335@\000\000\000\000\220`\345@\000\000\000\000\220q\374@\000\000\000\000\000u\342@\000\000\000\000\000\320\335@\000\000\000\000\340\310\341@\000\000\000\000\200\245\311@\000\000\000\000@\312\317@\000\000\000\000\000$\333@\000\000\000\000`/\320@\000\000\000\000`U\335@\000\000\000\000\320\223\344@\000\000\000\000@\220\327@\000\000\000\000`\360\330@\000\000\000\000`\316\323@\000\000\000\000`\270\335@\000\000\000\000\000^\272@\000\000\000\000\000\014\310@\000\000\000\000 \333\326@\000\000\000\000\300S\323@\000\000\000\0000\001\341@\000\000\000\000@<\312@\000\000\000\000\260k\347@\000\000\000\000 2\321@\000\000\000\000Pn\341@\000\000\000\000\000\371\305@\000\000\000\000@\232\331@\000\000\000\000\000\224\301@\000\000\000\000\000\371\325@\000\000\000\000\340\372\322@\000\000\000\000\000\313\314@\000\000\000\000 m\322@\000\000\000\000@\340\325@\000\000\000\000\340g\325@\000\000\000\000\200\030\357@\000\000\000\000\340u\326@\000\000\000\000\200q\315@\000\000\000\000\200+\270@\000\000\000\000\300\233\323@\000\000\000\000@\277\342@\000\000\000\000\340\215\331@\000\000\000\000\000J\317@\000\000\000\000\200\306\303@\000\000\000\000\300\255\323@\000\000\000\000@\313\330@\000\000\000\000\2607\342@\000\000\000\000\0006\333@\000\000\000\000\3008\334@\000\000\000\000`*\330@\000\000\000\000\000\303\276@\000\000\000\000\200\254\276@\000\000\000\000\000:\321@\000\000\000\000\000\357\314@\000\000\000\000\340\\\321@\000\000\000\000\340\332\332@\000\000\000\000\340s\333@\000\000\000\000\000\263\331@\000\000\000\000\300\364\341@\000\000\000\000\3105\372@\000\000\000\000\220\216\347@\000\000\000\000\000N\345@\000\000\000\000\000\224\301@\000\000\000\000 .\333@\000\000\000\000\300\303\333@\000\000\000\000\000\224\301@\000\000\000\000@\025\344@\000\000\000\000\240\252\330@\000\000\000\000\000\237\345@\000\000\000\000@u\307@\000\000\000\000@\351\336@\000\000\000\000\360\035\340@\000\000\000\0000\'\356@\000\000\000\000\000\177\335@\000\000\000\000\200\340\321@\000\000\000\000@=\334@\000\000\000\000@\234\324@\000\000\000\000\020\006\355@\000\000\000\000\300/\303@\000\000\000\000\200\271\335@\000\000\000\000@\370\350@\000\000\000\000\240\365\325@\000\000\000\000 \374\340@\000\000\000\000\210\265\360@\000\000\000\000\000t\331@\000\000\000\000\000b\300@\000\000\000\000\320\347\361@\000\000\000\000\220L\341@\000\000\000\000\300U\327@\000\000\000\000\340\260\327@\000\000\000\000\300\317\330@\000\000\000\000\2000\331@\000\000\000\000\300\352\330@\000\000\000\000 \222\324@\000\000\000\000\300F\344@\000\000\000\000@\206\305@\000\000\000\000@S\353@\000\000\000\000 \252\327@\000\000\000\000\200+\350@\000\000\000\000`\225\346@\000\000\000\000@p\326@\000\000\000\0000 \340@\000\000\000\000\240\343\336@\000\000\000\000 \022\320@\000\000\000\000\200\371\317@\000\000\000\000\020`\344@\000\000\000\000p\212\341@\000\000\000\000\300\334\327@\000\000\000\000\240d\334@\000\000\000\000@\241\305@\000\000\000\000\000\016\334@\000\000\000\000@\312\337@\000\000\000\000@\374\327@\000\000\000\000\000\014\350@\000\000\000\000\200\343\327@\000\000\000\000\340q\327@\000\000\000\000\300\326\324@\000\000\000\000\000\000\342@\000\000\000\000p\017\347@\000\000\000\000\000u\342@\000\000\000\000\240\274\330@\000\000\000\000@\255\322@\000\000\000\000\000u\342@\000\000\000\000\300\327\317@\000\000\000\000\240\366\347@\000\000\000\000\000m\335@\000\000\000\000\240\315\346@\000\000\000\000\000\222\317@\000\000\000\000 =\325@\000\000\000\000\020\023\343@\000\000\000\000`\267\322@\000\000\000\000\000)\303@\000\000\000\000\340\013\341@\000\000\000\000\300J\334@\000\000\000\000`=\332@\000\000\000\000\000:\352@\000\000\000\000\000^\312@\000\000\000\000p\203\345@\000\000\000\000 \253\331@\000\000\000\000\000\224\301@\000\000\000\000\000u\342@\000\000\000\000\320\247\350@\000\000\000\000\200\261\266@\000\000\000\000\240?\321@\000\000\000\000\240E\364@\000\000\000\000\340g\325@\000\000\000\000\000^\312@\000\000\000\000@\030\301@\000\000\000\000\000\272\336@\000\000\000\000`\301\324@\000\000\000\000\000\224\301@\000\000\000\000P.\370@\000\000\000\000\240\343\336@\000\000\000\000P\377\343@\000\000\000\000`\231\336@\000\000\000\000\340\006\331@\000\000\000\000`/\340@\000\000\000\000\360\003\342@\000\000\000\000\340C\325@\000\000\000\000\250\007\361@\000\000\000\000 \365\324@\000\000\000\000\260\013\355@\000\000\000\000\000\224\301@\000\000\000\000\340\216\322@\000\000\000\000@\232\331@\000\000\000\000@R\320@\000\000\000\000\200/\307@\000\000\000\000\020\275\341@\000\000\000\000\000\224\321@\000\000\000\000 \327\347@\000\000\000\000`\216\321@\000\000\000\000\300\222\343@\000\000\000\000\200\350\330@\000\000\000\000@\366\344@\000\000\000\000\000\345\341@\000\000\000\000 u\320@\000\000\000\000\200\025\311@\000\000\000\000p7\346@\000\000\000\000 \254\342@\000\000\000\000\360\217\343@\000\000\000\000\000\371\345@\000\000\000\000\300z\340@\000\000\000\000\240\323\331@\000\000\000\000\200\005\335@\000\000\000\000\2006\334@\000\000\000\000\020H\341@\000\000\000\000\300z\340@\000\000\000\000\000\303\276@\000\000\000\000\2004\330@\000\000\000\000\340K\334@\000\000\000\000\020[\343@\000\000\000\000\000^\312@\000\000\000\000\000\224\301@\000\000\000\000\000\222\317@\000\000\000\000\200\240\330@\000\000\000\000\000\303\276@\000\000\000\000\020\363\341@\000\000\000\000\200\342\265@\000\000\000\000\340\326\322@\000\000\000\000\300\311\325@\000\000\000\0000\331\341@\000\000\000\000\000\027\323@\000\000\000\000\240\200\325@\000\000\000\000P\244\341@\000\000\000\000\000\224\301@\000\000\000\000\300I\312@\000\000\000\000`\021\323@\000\000\000\000\200\317\314@\000\000\000\000@\354\333@\000\000\000\000\260\033\351@\000\000\000\000@\347\332@\000\000\000\000`\354\340@\000\000\000\000p\205\340@\000\000\000\000``\330@\000\000\000\000 e\335@\000\000\000\000\300\023\312@\000\000\000\000\300\255\323@\000\000\000\000`\255\320@\000\000\000\000\300[\321@\000\000\000\000\240\270\351@\000\000\000\000\000^\312@\000\000\000\000 \266\344@\000\000\000\000\000u\342@\000\000\000\000\200\360\346@\000\000\000\000\000\222\277@\000\000\000\000@\322\344@\000\000\000\000\0206\352@\000\000\000\0000\325\353@\000\000\000\000\200\256\331@\000\000\000\000\300S\323@\000\000\000\000\340\010\335@\000\000\000\000\000\224\301@\000\000\000\000PV\347@\000\000\000\000\220\316\340@\000\000\000\000`\207\336@\000\000\000\000\300\333\325@\000\000\000\000 \361\325@\000\000\000\000\240\005\322@\000\000\000\000\000?\313@\000\000\000\000`_\337@\000\000\000\000\340\225\347@\000\000\000\000`\343\331@\000\000\000\000@\211\313@\000\000\000\000\220\351\340@\000\000\000\000\300|\304@\000\000\000\000\000;\334@\000\000\000\000P\201\343@\000\000\000\000 \370\321@\000\000\000\000\000\224\301@\000\000\000\000\240\035\336@\000\000\000\000@p\326@\000\000\000\000\240\343\336@\000\000\000\000\200\272\306@\000\000\000\000\000^\272@\000\000\000\000@C\317@\000\000\000\000@\234\304@\000\000\000\000\2009\331@\000\000\000\000\000^\272@\000\000\000\000\340\355\334@\000\000\000\000\200\307\336@\000\000\000\000\340\245\334@\000\000\000\000\000\263\331@\000\000\000\000@\315\314@\000\000\000\000\000\356\301@\000\000\000\000\020L\340@\000\000\000\000\260\357\341@\000\000\000\000\340g\345@\000\000\000\000\240\346\333@\000\000\000\000\000^\312@\000\000\000\000\000\373\351@\000\000\000\000 \266\324@\000\000\000\000\320\026\346@\000\000\000\000\200Z\334@\000\000\000\000`\275\325@\000\000\000\000\000i\325@\000\000\000\000\000^\312@\000\000\000\000\200\"\310@\000\000\000\000`z\337@\000\000\000\000P\232\350@\000\000\000\000\000\237\265@\000\000\000\000\320\234\344@\000\000\000\000\360\256\342@\000\000\000\000@\300\335@\000\000\000\000\000\327\260@\000\000\000\000P\205\353@\000\000\000\000\000&\326@\000\000\000\000@~\327@\000\000\000\000\200\306\343@\000\000\000\000`\234\333@\000\000\000\000\300\256\305@\000\000\000\000\000,\351@\000\000\000\0008\223\360@\000\000\000\000`,\334@\000\000\000\000\240\275\341@\000\000\000\000`x\322@\000\000\000\000\000^\272@\000\000\000\000 \212\346@\000\000\000\000\000\224\301@\000\000\000\000\340\024\332@\000\000\000\000\300\365\334@\000\000\000\000\300,\337@\000\000\000\000\300\307\332@\000\000\000\000@s\323@\000\000\000\000\340\246\336@\000\000\000\000\2401\320@\000\000\000\000\300\300\316@\000\000\000\000 \214\341@\000\000\000\000\000\224\301@\000\000\000\000@\351\325@\000\000\000\000\240$\332@\000\000\000\000\3402\327@\000\000\000\000\000^\332@\000\000\000\000\000S\326@\000\000\000\000\200J\327@\000\000\000\000\000\303\316@\000\000\000\000\000}\320@\000\000\000\000`\242\325@\000\000\000\000 \022\320@\000\000\000\000\300\304\315@\000\000\000\000\200\023\305@\000\000\000\000`\t\325@\000\000\000\000@\034\340@\000\000\000\000 s\336@\000\000\000\000\320\213\346@\000\000\000\000\200\312\262@\000\000\000\000\000\301\332@\000\000\000\000`\222\351@\000\000\000\000p\177\346@\000\000\000\000\340\237\320@\000\000\000\000(\020\371@\000\000\000\000 \214\341@\000\000\000\000\000^\312@\000\000\000\000\000\016\334@\000\000\000\000\000`\316@\000\000\000\000\340\303\320@\000\000\000\000\300\214\340@\000\000\000\000 \254\342@\000\000\000\000\200\231\274@\000\000\000\000 \241\327@\000\000\000\000\320E\341@\000\000\000\000\000*\325@\000\000\000\000@\004\346@\000\000\000\000@\350\334@\000\000\000\000\300\236\320@\000\000\000\000\200\306\303@\000\000\000\000 \376\324@\000\000\000\000\240\350\337@\000\000\000\000\200+\350@\000\000\000\000 K\326@\000\000\000\000\340\007\333@\000\000\000\000\200\301\322@\000\000\000\000\340f\323@\000\000\000\000\200u\323@\000\000\000\000\000y\332@\000\000\000\000\300^\327@\000\000\000\000@\351\336@\000\000\000\000\000\270\341@\000\000\000\000\000\215\325@\000\000\000\000\200\257\313@\000\000\000\000\000\000\342@\000\000\000\000\3404\322@\000\000\000\000\200D\335@\000\000\000\000\300\303\342@\000\000\000\000@K\335@\000\000\000\000\300\241\337@\000\000\000\000\240\326\337@\000\000\000\000\340)\327@\000\000\000\000\000\224\301@\000\000\000\000\340\227\322@\000\000\000\000\200=\270@\000\000\000\000\300z\320@\000\000\000\000pO\340@\000\000\000\000`O\321@\000\000\000\000@\327\316@\000\000\000\000 \002\335@\000\000\000\000 c\320@\000\000\000\000\300k\317@\000\000\000\000\300\016\311@\000\000\000\000\200\002\327@\000\000\000\000p\"\340@\000\000\000\000\340-\346@\000\000\000\000\200\212\340@\000\000\000\000\300\353\341@\000\000\000\000\000\375\335@\000\000\000\000\300\271\340@\000\000\000\000\360\374\356@\000\000\000\000`\211\320@\000\000\000\000\200\237\326@\000\000\000\000\300.\321@\000\000\000\000\300\362\326@\000\000\000\000`\213\324@\000\000\000\000\3000\305@\000\000\000\000\000\224\301@\000\000\000\000`\315\341@\000\000\000\000\000\371\325@\000\000\000\000\300G\346@\000\000\000\000\200\210\325@\000\000\000\000@-\327@\000\000\000\000\000\371\325@\000\000\000\000`\035\320@\000\000\000\000\240\243\343@\000\000\000\000`l\336@\000\000\000\0000\236\340@\000\000\000\000Pi\360@\000\000\000\000@\032\325@\000\000\000\000\000%\255@\000\000\000\000`w\331@\000\000\000\000\260?\340@\000\000\000\000\200\002\307@\000\000\000\000\200[\345@\000\000\000\000\360\214\346@\000\000\000\000 G\347@\000\000\000\000po\352@\000\000\000\000\200\237\306@\000\000\000\000\260\260\341@\000\000\000\000\240D\353@\000\000\000\000\300\235\307@\000\000\000\000\240\030\335@\000\000\000\000\340\303\320@\000\000\000\000@\232\331@\000\000\000\000\200\370\304@\000\000\000\000 \253\320@\000\000\000\000\200A\327@\000\000\000\000\020\346\342@\000\000\000\000 \273\325@\000\000\000\000\300f\336@\000\000\000\000\340\361\333@\000\000\000\000@t\325@\000\000\000\000\000^\272@\000\000\000\000\000\224\301@\000\000\000\000\300\033\330@\000\000\000\000\200\250\346@\000\000\000\000@\215\332@\000\000\000\000\000\014\330@\000\000\000\000@\032\325@\000\000\000\000@7\300@\000\000\000\000\000^\272@\000\000\000\000\240C\320@\000\000\000\000@\234\315@\000\000\000\000\000\036\330@\000\000\000\000\300\236\320@\000\000\000\000\000\367\301@\000\000\000\000\340L\336@\000\000\000\000\340Y\344@\000\000\000\000 \022\320@\000\000\000\000\300\344\325@\000\000\000\000pT\341@\000\000\000\000\300\345\327@\000\000\000\000\000^\312@\000\000\000\0000G\346@\000\000\000\0000\324\351@\000\000\000\000pf\341@\000\000\000\000@\365\302@\000\000\000\000@\205\334@\000\000\000\000\200g\313@\000\000\000\000\200\n\316@\000\000\000\000\000^\312@\000\000\000\000\320\344\344@\000\000\000\000\300\262\324@\000\000\000\000\320\221\351@\000\000\000\000 \350\336@\000\000\000\000 V\341@\000\000\000\000\000^\312@\000\000\000\000\000\354\277@\000\000\000\000@\333\335@\000\000\000\000@m\340@\000\000\000\000\240\256\347@\000\000\000\000 \344\337@\000\000\000\000\360\367\344@\000\000\000\000\000\001\355@\000\000\000\000\200\006\337@\000\000\000\000\020H\341@\000\000\000\000\300\300\336@\000\000\000\000\340\213\325@\000\000\000\000\000\332\277@\000\000\000\000\300z\320@\000\000\000\000\300#\317@\000\000\000\000\300\230\306@\000\000\000\000\300\203\320@\000\000\000\000\240\343\336@\000\000\000\000\000\314\345@\000\000\000\000\300z\340@\000\000\000\000\200\245\331@\000\000\000\000\340\261\320@\000\000\000\000 \247\332@\000\000\000\000\000\371\325@\000\000\000\000\000\254\324@\000\000\000\000\240)\342@\000\000\000\0000\332\343@\000\000\000\000`\351\323@\000\000\000\000\360\217\343@\000\000\000\000\3007\321@\000\000\000\000@\210\331@\000\000\000\000\370\271\361@\000\000\000\000`+\332@\000\000\000\000\000\207\333@\000\000\000\000@\351\325@\000\000\000\000P\022\346@\000\000\000\000\340\220\326@\000\000\000\000X\t\361@\000\000\000\000\020W\344@\000\000\000\000\000\313\334@\000\000\000\000\000\321\326@\000\000\000\000\010\272\360@\000\000\000\000\000F\347@\000\000\000\000\000(\332@\000\000\000\000\000\257\341@\000\000\000\000@9\335@\000\000\000\000\3002\320@\000\000\000\000\300;\340@\000\000\000\000\000\303\276@\000\000\000\000\300\303\342@\000\000\000\000\000\002\357@\000\000\000\0000 \340@\000\000\000\000@n\342@\000\000\000\000\300z\320@\000\000\000\000@\353\340@\000\000\000\0000\375\341@\000\000\000\000 \340\327@\000\000\000\000\300Z\330@\000\000\000\000\300\020\324@\000\000\000\000\000^\312@\000\000\000\0000e\343@\000\000\000\000\200]\351@\000\000\000\000\220c\353@\000\000\000\000\300\227\315@\000\000\000\000\200\306\323@\000\000\000\000\000\351\311@\000\000\000\000\340\205\322@\000\000\000\000\300\343\314@\000\000\000\000\2000\340@\000\000\000\000\300M\311@\000\000\000\000\3404\322@\000\000\000\000@(\337@\000\000\000\000\000\367\301@\000\000\000\000\240\252\330@\000\000\000\000`\t\325@\000\000\000\000`\366\322@\000\000\000\000\000\224\301@\000\000\000\000\020Q\341@\000\000\000\000\000\303\336@\000\000\000\000\300\r\327@\000\000\000\000`i\330@\000\000\000\000\340\007\333@\000\000\000\000\300\326\324@\000\000\000\000\240\"\346@\000\000\000\000\000\371\325@\000\000\000\000\220Y\340@\000\000\000\000\300q\320@\000\000\000\0000d\341@\000\000\000\000\340\245\323@\000\000\000\000@\351\336@\000\000\000\000\300|\304@\000\000\000\000\200\340\332@\000\000\000\000\220R\364@\000\000\000\000\240\361\326@\000\000\000\000p\257\354@\000\000\000\000\000u\342@\000\000\000\000\200\260\335@\000\000\000\000\300\233\314@\000\000\000\000\200]\351@\000\000\000\000\360(\355@\000\000\000\000\300\230\317@\000\000\000\000\200\035\327@\000\000\000\000\300:\307@\000\000\000\000 H\331@\000\000\000\000\200G\321@\000\000\000\000@\333\304@\000\000\000\000\260d\342@\000\000\000\000@\320\331@\000\000\000\000\200Z\334@\000\000\000\000\260n\344@\000\000\000\000\200\247\324@\000\000\000\000 \375\322@\000\000\000\000\300|\324@\000\000\000\000\320?\347@\000\000\000\000@\301\306@\000\000\000\000`\332\331@\000\000\000\000\200A\327@\000\000\000\000 \211\324@\000\000\000\000\200\344\311@\000\000\000\000 v\322@\000\000\000\000\200p\342@\000\000\000\000@\327\325@\000\000\000\000\340\212\323@\000\000\000\000\200~\343@\000\000\000\000\360e\351@\000\000\000\000@X\334@\000\000\000\000\300\020\324@\000\000\000\000\340\320\330@\000\000\000\000\240\301\340@\000\000\000\000\0001\341@\000\000\000\000p=\340@\000\000\000\000\000\021\331@\000\000\000\000 T\346@\000\000\000\000p\272\347@\000\000\000\000P\251\353@\000\000\000\000 \212\346@\000\000\000\000@E\332@\000\000\000\000\0005\340@\000\000\000\000\000:\272@\000\000\000\000\340\017\340@\000\000\000\000\000$\313@\000\000\000\000\000\320\335@\000\000\000\000\220\200\346@\000\000\000\000@\272\301@\000\000\000\000@\322\315@\000\000\000\000\300z\331@\000\000\000\000\300|\324@\000\000\000\000\000\353\304@\000\000\000\000 `\323@\000\000\000\000\340U\325@\000\000\000\000\000\317\322@\000\000\000\000\000^\312@\000\000\000\000\300\021\326@\000\000\000\000\200\317\343@\000\000\000\000\000X\347@\000\000\000\000\000\263\331@\000\000\000\000\300<\342@\000\000\000\000\000>\300@\000\000\000\000\200+\350@\000\000\000\000\220\314\345@\000\000\000\000\300\204\333@\000\000\000\000\240\301\340@\000\000\000\000\240\326\337@\000\000\000\000\240V\322@\000\000\000\000\340\200\341@\000\000\000\000\200@\325@\000\000\000\000\300\226\322@\000\000\000\000\340p\336@\000\000\000\000\200A\327@\000\000\000\000\300e\314@\000\000\000\000\340\017\340@\000\000\000\000`\266\331@\000\000\000\000\300\226\322@\000\000\000\000\220\214\343@\000\000\000\000\020\354\345@\000\000\000\000\340\013\341@\000\000\000\000\000S\337@\000\000\000\000\000J\317@\000\000\000\000\000B\330@\000\000\000\000\200\"\350@\000\000\000\000\340\334\325@\000\000\000\000\200\023\336@\000\000\000\000\000\210\324@\000\000\000\000\300\020\324@\000\000\000\000\340\331\330@\000\000\000\000\000\027\314@\000\000\000\000 >\327@\000\000\000\000\320\223\344@\000\000\000\000\000\303\276@\000\000\000\000\200\342\265@\000\000\000\000\240\325\335@\000\000\000\000 L\330@\000\000\000\000 \216\325@\000\000\000\000\300\021\326@\000\000\000\000\260\033\351@\000\000\000\000\300\023\332@\000\000\000\000\360\217\343@\000\000\000\000P\271\347@\000\000\000\000\300[\321@\000\000\000\000\220\270\341@\000\000\000\000\200K\340@\000\000\000\000\300\372\315@\000\000\000\000\300\233\303@\000\000\000\000p\037\343@\000\000\000\000@\243\340@\000\000\000\000\300\352\330@\000\000\000\000 /\324@\000\000\000\000\260S\344@\000\000\000\000\200\255\327@\000\000\000\000@\206\305@\000\000\000\000\200\245\351@\000\000\000\000\300\337\344@\000\000\000\000\000\364\315@\000\000\000\000\200\006\337@\000\000\000\000\000^\272@\000\000\000\000\300z\320@\000\000\000\0000d\341@\000\000\000\000p\236\345@\000\000\000\000`\272\330@\000\000\000\000\200\303\317@\000\000\000\000`$\336@\000\000\000\000\200\341\334@\000\000\000\000\300\202\327@\000\000\000\000\020\026\351@\000\000\000\000\000\353\335@\000\000\000\000 \232\322@\000\000\000\000@t\325@\000\000\000\000\220_\343@\000\000\000\000\340`\331@\000\000\000\000 n\335@\000\000\000\000@\340\325@\000\000\000\000\000\250\316@\000\000\000\000\220,\351@\000\000\000\000\300j\315@\000\000\000\000@\014\304@\000\000\000\000 \032\347@\000\000\000\000`\272\330@\000\000\000\000\260\177\342@\000\000\000\000\000\353\324@\000\000\000\000\340\035\332@\000\000\000\000\000^\312@\000\000\000\000\240\371\324@\000\000\000\000\300\310\303@\000\000\000\000\340#\335@\000\000\000\000 \275\351@\000\000\000\000\200\250\346@\000\000\000\000@]\315@\000\000\000\000\300Q\350@\000\000\000\000\000\263\331@\000\000\000\000\000\004\332@\000\000\000\000P0\343@\000\000\000\000`W\330@\000\000\000\000\340T\323@\000\000\000\000\000\224\321@\000\000\000\000\000\330\313@\000\000\000\0000P\346@\000\000\000\000\200\t\343@\000\000\000\000\000:\352@\000\000\000\000`d\327@\000\000\000\000@7\311@\000\000\000\000@9\335@\000\000\000\000\300X\355@\000\000\000\0000\376\343@\000\000\000\000P\235\356@\000\000\000\000\000\371\325@\000\000\000\000@\001\320@\000\000\000\000\200\375\276@\000\000\000\000\200d\325@\000\000\000\000\300\367\327@\000\000\000\0000\300\345@\000\000\000\000@\362\305@\000\000\000\000@\232\331@\000\000\000\000\240\204\335@\000\000\000\000\340\261\320@\000\000\000\000\240l\341@\000\000\000\000 P\327@\000\000\000\000\000^\312@\000\000\000\000\260\324\341@\000\000\000\000`\244\331@\000\000\000\000`\343\340@\000\000\000\000 u\320@\000\000\000\000@\215\312@\000\000\000\000`\035\320@\000\000\000\000\200\026\302@\000\000\000\000\320\223\344@\000\000\000\000\3604\352@\000\000\000\0000\n\352@\000\000\000\000\000\357\303@\000\000\000\000@\255\322@\000\000\000\000\240\200\325@\000\000\000\000@p\346@\000\000\000\000\200\344\311@\000\000\000\000\020L\340@\000\000\000\000\200\356\322@\000\000\000\000 \023\333@\000\000\000\000\200\020\350@\000\000\000\000\300q\320@\000\000\000\000`\361\341@\000\000\000\000\360\256\342@\000\000\000\000\240\"\346@\000\000\000\000\2003\277@\000\000\000\000\340J\321@\000\000\000\000\000\320\335@\000\000\000\000\260d\342@\000\000\000\000\000\265\335@\000\000\000\000\000\001\324@\000\000\000\000 \320\353@\000\000\000\000\300z\320@\000\000\000\000\000^\312@\000\000\000\000\300\303\342@\000\000\000\000\020\275\341@\000\000\000\000\340Y\344@\000\000\000\000\200A\327@\000\000\000\000\250\007\361@\000\000\000\000 \317\351@\000\000\000\000@*\332@\000\000\000\000`\341\356@\000\000\000\000@P\325@\000\000\000\000\300\316\317@\000\000\000\000@_\330@\000\000\000\000pb\342@\000\000\000\000\000^\312@\000\000\000\000@\352\347@\000\000\000\000\340\346\327@\000\000\000\000`\\\320@\000\000\000\000\340\217\324@\000\000\000\000\200*\317@\000\000\000\0000\\\343@\000\000\000\000 \262\325@\000\000\000\000\340\017\320@\000\000\000\000\000\004\332@\000\000\000\000p\007\340@\000\000\000\000\000\312\321@\000\000\000\000\200d\325@\000\000\000\000\000\224\321@\000\000\000\000@\351\336@\000\000\000\000\300%\312@\000\000\000\000\000\371\305@\000\000\000\000\200\364\325@\000\000\000\000@\204\352@\000\000\000\000\200\336\306@\000\000\000\000\3000\305@\000\000\000\000@\323\317@\000\000\000\000\200<\306@\000\000\000\000\200\234\351@\000\000\000\000\000\224\301@\000\000\000\000`\207\336@\000\000\000\000 .\333@\000\000\000\000\000?\322@\000\000\000\0000Z\350@\000\000\000\000 `\343@\000\000\000\000`Y\343@\000\000\000\000\220#\351@\000\000\000\000`#\334@\000\000\000\000\200\220\334@\000\000\000\000\240\352\341@\000\000\000\000\340\223\323@\000\000\000\000\300q\300@\000\000\000\000\240[\343@\000\000\000\000@q\350@\000\000\000\000\340A\332@\000\000\000\000\240 \322@\000\000\000\000\000\342\335@\000\000\000\000`\t\325@\000\000\000\000@#\305@\000\000\000\000\200d\325@\000\000\000\000\000l\313@\000\000\000\000\000\266\337@\000\000\000\000\240C\360@\000\000\000\000p\347\347@\000\000\000\000\300z\320@\000\000\000\000\300\243\301@\000\000\000\000\300\200\314@\000\000\000\000\240\206\330@\000\000\000\000`\374\336@\000\000\000\000\000\335\314@\000\000\000\000\340N\331@\000\000\000\000\200)\315@\000\000\000\000\240\t\352@\000\000\000\000\300b\317@\000\000\000\000\000\371\305@\000\000\000\000\000\224\301@\000\000\000\000`m\327@\000\000\000\000Pr\340@\000\000\000\000 \214\341@\000\000\000\000@2\350@\000\000\000\000@p\317@\000\000\000\000\340\254\350@\000\000\000\000\300X\304@\000\000\000\000\340)\327@\000\000\000\000`\343\331@\000\000\000\000`\315\341@\000\000\000\000\240\364\354@\000\000\000\000 u\320@\000\000\000\000\200\330\323@\000\000\000\000\340\326\353@\000\000\000\000`_\337@\000\000\000\000\200\343\327@\000\000\000\000\200\n\305@\000\000\000\000`\343\331@\000\000\000\000\000\014\310@\000\000\000\000@p\326@\000\000\000\000`c\325@\000\000\000\000 \261\323@\000\000\000\000`-\345@\000\000\000\000\200\035\307@\000\000\000\000\340\205\342@\000\000\000\000\000\272\336@\000\000\000\000\200\214\335@\000\000\000\000 \342\333@\000\000\000\000\300\215\333@\000\000\000\000\200\306\323@\000\000\000\000\340k\335@\000\000\000\000\240\367\340@\000\000\000\000\000J\337@\000\000\000\000\3003\313@\000\000\000\000\200\300\311@\000\000\000\000\200\312\302@\000\000\000\000\300Y\317@\000\000\000\000\340\365\321@\000\000\000\0000\212\345@\000\000\000\000\000%\324@\000\000\000\000\300\026\327@\000\000\000\000\000\254\324@\000\000\000\000\300|\324@\000\000\000\000\000\303\316@\000\000\000\000\300\'\336@\000\000\000\000\300z\320@\000\000\000\000\370\271\361@\000\000\000\000 \253\331@\000\000\000\000\220[\344@\000\000\000\000\000\224\301@\000\000\000\000\000^\272@\000\000\000\0000 \340@\000\000\000\000\340\347\331@\000\000\000\000@\224\337@\000\000\000\000\300\225\331@\000\000\000\000\000\260\334@\000\000\000\000\220\270\341@\000\000\000\000\350l\361@\000\000\000\000\200/\307@\000\000\000\000\200\261\306@\000\000\000\000\200\257\322@\000\000\000\000\000\006\336@\000\000\000\000\000\316\320@\000\000\000\000\220I\344@\000\000\000\000\000\000\342@\000\000\000\000\000\262\347@\000\000\000\000\2005\312@\000\000\000\000\000\371\325@\000\000\000\000\240\275\341@\000\000\000\000\260\371\343@\000\000\000\000\200\242\314@\000\000\000\000p\377\352@\000\000\000\000\320P\345@\000\000\000\000\240Q\352@\000\000\000\000\200 \335@\000\000\000\000P\360\340@\000\000\000\000\260\203\341@\000\000\000\000\000^\272@\000\000\000\000Py\345@\000\000\000\000\000\367\321@\000\000\000\000p;\356@\000\000\000\000\000^\272@\000\000\000\000\240\225\322@\000\000\000\000 {\334@\000\000\000\000\000\021\340@\000\000\000\000\300\310\323@\000\000\000\000\200\001\325@\000\000\000\000 \253\331@\000\000\000\000`H\325@\000\000\000\000\340\027\347@\000\000\000\000\340\314\360@\000\000\000\000\200N\306@\000\000\000\000\240\266\325@\000\000\000\000\200\204\337@\000\000\000\000 \250\323@\000\000\000\000\000~\322@\000\000\000\000\300\371\322@\000\000\000\000`\371\330@\000\000\000\000\000:\352@\000\000\000\000\000\224\301@\000\000\000\000\300\227\315@\000\000\000\000\300\255\343@\000\000\000\000\300\007\315@\000\000\000\000\240\200\325@\000\000\000\000 u\320@\000\000\000\0000\006\342@\000\000\000\000\240\r\340@\000\000\000\000\000\224\301@\000\000\000\000\000\234\350@\000\000\000\000\240\343\336@\000\000\000\000\200\255\327@\000\000\000\000\200]\351@\000\000\000\000 \251\325@\000\000\000\000\340\340\344@\000\000\000\000\000^\272@\000\000\000\000\000\214\343@\000\000\000\000@Y\325@\000\000\000\000`\371\330@\000\000\000\000\300\377\325@\000\000\000\0000\262\344@\000\000\000\000\300J\303@\000\000\000\000\200\306\323@\000\000\000\000\000^\272@\000\000\000\000`\315\341@\000\000\000\000\000\260\343@\000\000\000\000\000^\312@\000\000\000\000\340\374\326@\000\000\000\000\240l\341@\000\000\000\000`\315\341@\000\000\000\000@\014\335@\000\000\000\000`\372\341@\000\000\000\000\240\200\325@\000\000\000\000\200V\264@\000\000\000\000\000w\306@\000\000\000\000\340\025\334@\000\000\000\000\300\\\314@\000\000\000\000@*\321@\000\000\000\000@P\336@\000\000\000\000\340\261\320@\000\000\000\000\200A\327@\000\000\000\000\300z\360@\000\000\000\000\000\224\301@\000\000\000\000 @\322@\000\000\000\000\000\224\301@\000\000\000\000`\\\331@\000\000\000\000\200\026\273@\000\000\000\000\240\255\325@\000\000\000\000\000\373\351@\000\000\000\000P\246\356@\000\000\000\000`O\341@\000\000\000\000@F\323@\000\000\000\000@c\327@\000\000\000\000\000}\311@\000\000\000\000@\335\330@\000\000\000\000\340\017\340@\000\000\000\000\370\271\361@\000\000\000\000\000\371\305@\000\000\000\000\300\252\346@\000\000\000\000\300\255\303@\000\000\000\000\300\236\340@\000\000\000\000\000\371\276@\000\000\000\000\200\306\303@\000\000\000\000\000\320\335@\000\000\000\000\000\004\332@\000\000\000\000\320[\351@\000\000\000\000@\351\336@\000\000\000\000\340*\351@\000\000\000\000\340\353\330@\000\000\000\000\370\352\360@\000\000\000\000\300\321\314@\000\000\000\000\000\010\311@\000\000\000\000@G\356@\000\000\000\000\200A\327@\000\000\000\000\2404\326@\000\000\000\000\000\371\325@\000\000\000\000\200M\355@\000\000\000\000\000:\352@\000\000\000\000\300\230\326@\000\000\000\000\000\303\336@\000\000\000\000\200\'\320@\000\000\000\000`\343\340@\000\000\000\000p\245\341@\000\000\000\000\220c\353@\000\000\000\000\200\224\333@\000\000\000\000\000\274\320@\000\000\000\000\200\306\323@\000\000\000\000`\370\357@\000\000\000\000\200\373\332@\000\000\000\000@\177\351@\000\000\000\000\000\376\257@\000\000\000\000 \222\335@\000\000\000\0000\231\350@\000\000\000\000p{\347@\000\000\000\000\000\257\332@\000\000\000\000\200\253\343@\000\000\000\000\020\247\342@\000\000\000\000\340T\343@\000\000\000\000P\310\352@\000\000\000\000@\201\344@\000\000\000\000`\274\334@\000\000\000\000\320\265\351@\000\000\000\000`Q\336@\000\000\000\000\340+\322@\000\000\000\000\300;\331@\000\000\000\000\200\004\313@\000\000\000\000\000\t\313@\000\000\000\000@`\312@\000\000\000\000\300\365\334@\000\000\000\000\000\224\301@\000\000\000\000\200\306\303@"
      }
    }
  }
}
node {
  name: "tensors/component_1"
  op: "Const"
  device: "/device:CPU:0"
  attr {
    key: "_output_shapes"
    value {
      list {
        shape {
          dim {
            size: 2000
          }
        }
      }
    }
  }
  attr {
    key: "dtype"
    value {
      type: DT_DOUBLE
    }
  }
  attr {
    key: "value"
    value {
      tensor {
        dtype: DT_DOUBLE
        tensor_shape {
          dim {
            size: 2000
          }
        }
        tensor_content: "\000\000\000\000\000\340p@\000\000\000\000\000\340P@\000\000\000\000\000\340`@\000\000\000\000\000`^@\000\000\000\000\000\300X@\000\000\000\000\000\240c@\000\000\000\000\000\200v@\000\000\000\000\000\340`@\000\000\000\000\000\240X@\000\000\000\000\000\340P@\000\000\000\000\000`j@\000\000\000\000\000\240g@\000\000\000\000\000\260c@\000\000\000\000\000\000[@\000\000\000\000\000\300P@\000\000\000\000\000 \\@\000\000\000\000\000\000S@\000\000\000\000\000\340`@\000\000\000\000\000\220g@\000\000\000\000\000@{@\000\000\000\000\000\300Z@\000\000\000\000\000\200V@\000\000\000\000\000\240X@\000\000\000\000\000\200V@\000\000\000\000\000 \\@\000\000\000\000\000\200V@\000\000\000\000\000\240u@\000\000\000\000\000\340`@\000\000\000\000\000 \\@\000\000\000\000\000@e@\000\000\000\000\000`^@\000\000\000\000\000\200f@\000\000\000\000\000Pi@\000\000\000\000\000\000S@\000\000\000\000\000\300X@\000\000\000\000\000P`@\000\000\000\000\000\200v@\000\000\000\000\000\000K@\000\000\000\000\000p\200@\000\000\000\000\000\240h@\000\000\000\000\000\200f@\000\000\000\000\000@T@\000\000\000\000\000\240u@\000\000\000\000\000\340\200@\000\000\000\000\000\200f@\000\000\000\000\000\200f@\000\000\000\000\000\200f@\000\000\000\000\000\200f@\000\000\000\000\000 l@\000\000\000\000\000\360a@\000\000\000\000\000\200f@\000\000\000\000\000\000c@\000\000\000\000\000\340Y@\000\000\000\000\000\240h@\000\000\000\000\000\360a@\000\000\000\000\000@^@\000\000\000\000\000\220g@\000\000\000\000\000\340`@\000\000\000\000\000 T@\000\000\000\000\000\300C@\000\000\000\000\000 l@\000\000\000\000\000\320e@\000\000\000\000\000Pi@\000\000\000\000\000\000\\@\000\000\000\000\000\200V@\000\000\000\000\0000h@\000\000\000\000\000 `@\000\000\000\000\000@W@\000\000\000\000\000\240X@\000\000\000\000\000 S@\000\000\000\000\000\340`@\000\000\000\000\000`n@\000\000\000\000\000\000K@\000\000\000\000\000\340`@\000\000\000\000\000\200_@\000\000\000\000\000@O@\000\000\000\000\000\340Y@\000\000\000\000\000\340p@\000\000\000\000\000Pi@\000\000\000\000\000\340P@\000\000\000\000\000Pi@\000\000\000\000\000\340`@\000\000\000\000\000\360a@\000\000\000\000\000\260c@\000\000\000\000\000\240u@\000\000\000\000\000@d@\000\000\000\000\000 \\@\000\000\000\000\000\220g@\000\000\000\000\000@^@\000\000\000\000\000\360n@\000\000\000\000\000`e@\000\000\000\000\000\340`@\000\000\000\000\000\260c@\000\000\000\000\000Pi@\000\000\000\000\000\000b@\000\000\000\000\000\260c@\000\000\000\000\0000`@\000\000\000\000\000\200f@\000\000\000\000\000 l@\000\000\000\000\000\200V@\000\000\000\000\000@{@\000\000\000\000\000\2000@\000\000\000\000\000@]@\000\000\000\000\000\000c@\000\000\000\000\000\340`@\000\000\000\000\000Pi@\000\000\000\000\000\320r@\000\000\000\000\000\240X@\000\000\000\000\000`j@\000\000\000\000\000\340`@\000\000\000\000\000@d@\000\000\000\000\000 \\@\000\000\000\000\0000`@\000\000\000\000\000\210d@\000\000\000\000\0000`@\000\000\000\000\000@^@\000\000\000\000\000 \\@\000\000\000\000\000\300d@\000\000\000\000\000\200O@\000\000\000\000\000\360a@\000\000\000\000\000\260c@\000\000\000\000\000\300d@\000\000\000\000\000\220g@\000\000\000\000\000\340f@\000\000\000\000\000\2005@\000\000\000\000\000\200V@\000\000\000\000\000\200f@\000\000\000\000\000\030u@\000\000\000\000\000\320r@\000\000\000\000\000 l@\000\000\000\000\0000`@\000\000\000\000\000 U@\000\000\000\000\000Hr@\000\000\000\000\000\340Z@\000\000\000\000\000\260c@\000\000\000\000\000\340`@\000\000\000\000\000\200W@\000\000\000\000\000\340P@\000\000\000\000\000\340`@\000\000\000\000\000 \\@\000\000\000\000\000\000]@\000\000\000\000\000\300Z@\000\000\000\000\000`j@\000\000\000\000\000\300Z@\000\000\000\000\000\200V@\000\000\000\000\000 \\@\000\000\000\000\0000m@\000\000\000\000\000 l@\000\000\000\000\000\300C@\000\000\000\000\000\000M@\000\000\000\000\000Pi@\000\000\000\000\000 l@\000\000\000\000\000Hr@\000\000\000\000\000\260s@\000\000\000\000\000\340`@\000\000\000\000\000\200f@\000\000\000\000\000\200V@\000\000\000\000\000\260s@\000\000\000\000\000 \\@\000\000\000\000\000 l@\000\000\000\000\000`U@\000\000\000\000\000\200f@\000\000\000\000\000@^@\000\000\000\000\000Ds@\000\000\000\000\000\340`@\000\000\000\000\000\240X@\000\000\000\000\000\340`@\000\000\000\000\000\000c@\000\000\000\000\000 \\@\000\000\000\000\000\260c@\000\000\000\000\000Pi@\000\000\000\000\000\340`@\000\000\000\000\000`a@\000\000\000\000\000Pi@\000\000\000\000\000\260c@\000\000\000\000\000`j@\000\000\000\000\000\340`@\000\000\000\000\000\340p@\000\000\000\000\000 \\@\000\000\000\000\000\200f@\000\000\000\000\000\340`@\000\000\000\000\000 l@\000\000\000\000\000\260c@\000\000\000\000\000\260c@\000\000\000\000\000\210p@\000\000\000\000\000\340Z@\000\000\000\000\000\340P@\000\000\000\000\000\200f@\000\000\000\000\000\200V@\000\000\000\000\000 l@\000\000\000\000\000\240h@\000\000\000\000\000 |@\000\000\000\000\000\240X@\000\000\000\000\000\340`@\000\000\000\000\000\240c@\000\000\000\000\000\350w@\000\000\000\000\000\200V@\000\000\000\000\000\340p@\000\000\000\000\000\340p@\000\000\000\000\000\320d@\000\000\000\000\000\320e@\000\000\000\000\000 S@\000\000\000\000\000\200V@\000\000\000\000\000\260s@\000\000\000\000\000 \\@\000\000\000\000\000\260c@\000\000\000\000\000\200f@\000\000\000\000\000@T@\000\000\000\000\000\240X@\000\000\000\000\000\200f@\000\000\000\000\000 l@\000\000\000\000\000\240X@\000\000\000\000\000\340p@\000\000\000\000\000\360a@\000\000\000\000\000\240u@\000\000\000\000\000\260s@\000\000\000\000\000\350\207@\000\000\000\000\000\260c@\000\000\000\000\000@{@\000\000\000\000\000 l@\000\000\000\000\000 U@\000\000\000\000\000\200v@\000\000\000\000\0000m@\000\000\000\000\000 \\@\000\000\000\000\000\260\203@\000\000\000\000\000\000c@\000\000\000\000\000\210p@\000\000\000\000\000\300X@\000\000\000\000\000\360n@\000\000\000\000\000\200V@\000\000\000\000\000`a@\000\000\000\000\000\000c@\000\000\000\000\000\220w@\000\000\000\000\000 l@\000\000\000\000\000\000b@\000\000\000\000\000@T@\000\000\000\000\000\260s@\000\000\000\000\000\200f@\000\000\000\000\000\260c@\000\000\000\000\000@T@\000\000\000\000\000 \\@\000\000\000\000\000\200f@\000\000\000\000\000@{@\000\000\000\000\000\300Z@\000\000\000\000\000 \\@\000\000\000\000\000 U@\000\000\000\000\000\200f@\000\000\000\000\000\340`@\000\000\000\000\000\000(@\000\000\000\000\000 |@\000\000\000\000\000\210}@\000\000\000\000\000\000O@\000\000\000\000\000\300J@\000\000\000\000\000\200V@\000\000\000\000\000\200f@\000\000\000\000\000\000S@\000\000\000\000\000\360a@\000\000\000\000\000\200V@\000\000\000\000\000\360a@\000\000\000\000\000\220g@\000\000\000\000\000 \\@\000\000\000\000\000\220b@\000\000\000\000\000\320e@\000\000\000\000\000\260c@\000\000\000\000\000\000b@\000\000\000\000\000\254\201@\000\000\000\000\000\300Z@\000\000\000\000\000\260h@\000\000\000\000\000pj@\000\000\000\000\000\340p@\000\000\000\000\000\200o@\002+\207\026\331\372[@\000\000\000\000\000 \\@\000\000\000\000\000\340`@\000\000\000\000\000@T@\000\000\000\000\000 |@\000\000\000\000\000\240X@\000\000\000\000\000Py@\000\000\000\000\000 |@\000\000\000\000\000Py@\000\000\000\000\000`j@\000\000\000\000\000\000S@\000\000\000\000\000\200V@\000\000\000\000\000 |@\000\000\000\000\000\200f@\000\000\000\000\000 \\@\000\000\000\000\000\000p@\000\000\000\000\000\200V@\000\000\000\000\0000h@\000\000\000\000\000\200y@\000\000\000\000\000 |@\000\000\000\000\000\340`@\000\000\000\000\000Pi@\000\000\000\000\0000m@\000\000\000\000\000Pi@\000\000\000\000\000\260c@\000\000\000\000\000\340f@\000\000\000\000\000\220g@\000\000\000\000\000 |@\000\000\000\000\000`U@\000\000\000\000\000\260c@\000\000\000\000\000\340`@\000\000\000\000\000 l@\000\000\000\000\000\260c@\000\000\000\000\000@`@\000\000\000\000\000 \\@\000\000\000\000\000\340`@\000\000\000\000\000\340`@\000\000\000\000\000 U@\000\000\000\000\000\300X@\000\000\000\000\000`^@\000\000\000\000\000\260c@\000\000\000\000\000\200V@\000\000\000\000\000\300Q@\000\000\000\000\000\300d@\000\000\000\000\000\360a@\000\000\000\000\000\020g@\000\000\000\000\000 \\@\000\000\000\000\0000X@\000\000\000\000\000 l@\000\000\000\000\000\360n@\000\000\000\000\000 l@\000\000\000\000\000 \\@\000\000\000\000\000 l@\000\000\000\000\000\260c@\000\000\000\000\000 |@\000\000\000\000\0008t@\000\000\000\000\000\340`@\000\000\000\000\000\000c@\000\000\000\000\000\300Y@\000\000\000\000\000\200f@\000\000\000\000\000\210p@\000\000\000\000\000 l@\000\000\000\000\000\000c@\000\000\000\000\000@^@\000\000\000\000\000\000c@\000\000\000\000\000\340p@\000\000\000\000\000\240u@\000\000\000\000\000pa@\000\000\000\000\000\200_@\000\000\000\000\000\000S@\000\000\000\000\000\360a@\000\000\000\000\000\200V@\266\363\375\324x\231Z@\000\000\000\000\000\360n@\000\000\000\000\000@]@\000\000\000\000\000Pi@\000\000\000\000\000\260s@\000\000\000\000\000 U@\000\000\000\000\000\260c@\000\000\000\000\000\000b@\000\000\000\000\000\360j@\000\000\000\000\000\200f@\000\000\000\000\000Hr@\000\000\000\000\000\340`@\000\000\000\000\000\260c@\000\000\000\000\000\200V@\000\000\000\000\000\200f@\000\000\000\000\000 l@\000\000\000\000\000 |@\000\000\000\000\000\340i@\000\000\000\000\000xr@\000\000\000\000\000@d@\000\000\000\000\000\340Z@\000\000\000\000\000 \\@\000\000\000\000\000Pi@\000\000\000\000\000 l@\000\000\000\000\0000m@\000\000\000\000\000\000[@\000\000\000\000\000\260c@\000\000\000\000\000\340p@\000\000\000\000\000\340`@\000\000\000\000\000\200V@\000\000\000\000\0000`@\000\000\000\000\000\360n@\000\000\000\000\000\340P@\000\000\000\000\000\260c@\000\000\000\000\0000m@\000\000\000\000\000 \\@\000\000\000\000\000\340e@\000\000\000\000\000\200V@\000\000\000\000\000\300i@\000\000\000\000\000Pi@\000\000\000\000\000\340P@\000\000\000\000\000 \\@\000\000\000\000\000\360U@\000\000\000\000\000 U@\000\000\000\000\000@^@\000\000\000\000\000`j@\000\000\000\000\000\260c@\000\000\000\000\000`^@\000\000\000\000\000\220c@\000\000\000\000\000\200V@\000\000\000\000\000\200f@\000\000\000\000\000\200V@\000\000\000\000\000\260c@\000\000\000\000\000 l@\000\000\000\000\000\230p@\000\000\000\000\000\340`@\000\000\000\000\000`n@\000\000\000\000\000\300Z@\000\000\000\000\000\240h@\000\000\000\000\000@T@\000\000\000\000\000\000H@\000\000\000\000\000\300d@\000\000\000\000\000\200v@\000\000\000\000\000\260c@\000\000\000\000\000\260c@\000\000\000\000\000\200V@\000\000\000\000\000\200V@\000\000\000\000\000\340`@\000\000\000\000\0000`@\000\000\000\000\000\200f@\000\000\000\000\000\000\200@\000\000\000\000\000\200_@\000\000\000\000\000\300i@\000\000\000\000\000Hr@\000\000\000\000\000\000S@\000\000\000\000\000\220g@\000\000\000\000\000 U@\000\000\000\000\000Pi@\000\000\000\000\000 \\@\000\000\000\000\000 \\@\000\000\000\000\000\320r@\000\000\000\000\000 l@\000\000\000\000\000\260c@\000\000\000\000\000\360a@\000\000\000\000\000hq@\000\000\000\000\000 \\@\000\000\000\000\000\300Z@\000\000\000\000\000\200g@\000\000\000\000\000\200V@\000\000\000\000\000 C@\000\000\000\000\000`V@\000\000\000\000\000`e@\000\000\000\000\000`^@\000\000\000\000\000Pi@\000\000\000\000\000\200f@\000\000\000\000\000\360a@\000\000\000\000\000\320e@\000\000\000\000\000 l@\000\000\000\000\000\340`@\000\000\000\000\000\200X@\000\000\000\000\000\260c@\000\000\000\000\000 \\@\000\000\000\000\000pk@\000\000\000\000\000 q@\000\000\000\000\000\200V@\000\000\000\000\000 \\@\000\000\000\000\000 l@\000\000\000\000\000Pi@\000\000\000\000\000\340`@\000\000\000\000\000 \\@\000\000\000\000\000Py@\000\000\000\000\000 l@\000\000\000\000\000\340`@\000\000\000\000\000\340p@\000\000\000\000\000 \\@\000\000\000\000\000\260c@\000\000\000\000\000\200_@\000\000\000\000\000\300d@\000\000\000\000\000@T@\000\000\000\000\000 \\@\000\000\000\000\000 S@\000\000\000\000\000\340`@\000\000\000\000\0000`@\000\000\000\000\000\340p@\000\000\000\000\000\360n@\000\000\000\000\000\000c@\000\000\000\000\000 \\@\000\000\000\000\000\000\200@\000\000\000\000\000\200f@\000\000\000\000\000\200_@\000\000\000\000\000\340P@\000\000\000\000\000 l@\000\000\000\000\000\360a@\000\000\000\000\000 \\@\000\000\000\000\000@]@\000\000\000\000\000\300C@\000\000\000\000\000\000S@\000\000\000\000\000`^@\000\000\000\000\000\030u@\000\000\000\000\000@T@\000\000\000\000\000 l@\000\000\000\000\000@]@\000\000\000\000\000\000c@\000\000\000\000\000 \\@\000\000\000\000\000\260c@\000\000\000\000\000 l@\000\000\000\000\000\340P@\000\000\000\000\000\260c@\000\000\000\000\000@V@\000\000\000\000\000\220g@\000\000\000\000\000\340p@\000\000\000\000\000 \\@\000\000\000\000\000@n@\000\000\000\000\000\340p@\000\000\000\000\000\300d@\000\000\000\000\000 s@\000\000\000\000\000\200f@\000\000\000\000\000\340`@\000\000\000\000\000 U@\000\000\000\000\000 l@\000\000\000\000\000 \\@\000\000\000\000\000\200V@\000\000\000\000\000\200V@\337O\215\227n\222V@\000\000\000\000\000\200v@\000\000\000\000\000\000\\@\000\000\000\000\000`_@\000\000\000\000\000\200V@\000\000\000\000\0000m@\000\000\000\000\000 U@\000\000\000\000\000\260c@\000\000\000\000\000\260c@\000\000\000\000\000\340`@\000\000\000\000\000 |@\000\000\000\000\000\260c@\000\000\000\000\000\200V@\315\314\314\314\314Tg@\000\000\000\000\000\340`@\000\000\000\000\000\300J@\000\000\000\000\000@^@\000\000\000\000\000\000?@\000\000\000\000\000\200o@\000\000\000\000\000\030u@\000\000\000\000\000 l@\000\000\000\000\000\200v@\000\000\000\000\000\240h@\000\000\000\000\000\030u@\000\000\000\000\000\200H@\000\000\000\000\000\300d@\000\000\000\000\000\000[@\000\000\000\000\000\240Q@\000\000\000\000\000 \\@\000\000\000\000\000@n@\000\000\000\000\000Pi@\000\000\000\000\000\300X@\000\000\000\000\000\200V@\000\000\000\000\000\340`@\000\000\000\000\000\240X@\000\000\000\000\000@T@\000\000\000\000\000\300Z@\000\000\000\000\000Pi@\000\000\000\000\000@^@\000\000\000\000\000 l@\000\000\000\000\000\340p@\000\000\000\000\000\340P@\000\000\000\000\000\000K@\000\000\000\000\000Pp@\000\000\000\000\000\340`@\000\000\000\000\000\340e@\000\000\000\000\000 c@\000\000\000\000\000\320r@\000\000\000\000\000 \\@\000\000\000\000\000\350w@\000\000\000\000\000\260c@\000\000\000\000\000@^@\000\000\000\000\000\340`@\000\000\000\000\000@T@\000\000\000\000\000@^@\000\000\000\000\000\200H@\000\000\000\000\000\270q@\000\000\000\000\000\000S@\000\000\000\000\000Pi@\000\000\000\000\000\360a@\000\000\000\000\000\200_@\000\000\000\000\000\340P@\000\000\000\000\000\260c@\000\000\000\000\000\300P@\000\000\000\000\000`j@\000\000\000\000\000\200f@\000\000\000\000\000\200f@\000\000\000\000\000\240X@\000\000\000\000\0000`@\000\000\000\000\000\300Y@\000\000\000\000\000\300J@\000\000\000\000\000 \\@\000\000\000\000\0000`@\000\000\000\000\000 |@\000\000\000\000\000\360a@\000\000\000\000\0000`@\000\000\000\000\000\360n@\000\000\000\000\000\240X@\000\000\000\000\000Pi@\000\000\000\000\000\200V@\000\000\000\000\000 \\@\000\000\000\000\000\220g@\000\000\000\000\000 l@\000\000\000\000\000\340Z@\000\000\000\000\000\260s@\000\000\000\000\000\320m@\000\000\000\000\000\350w@\000\000\000\000\000\200f@\000\000\000\000\000\340`@\000\000\000\000\000\340P@\000\000\000\000\000\300X@\000\000\000\000\000\240X@\000\000\000\000\000 l@\000\000\000\000\000\200f@\000\000\000\000\000\260s@\000\000\000\000\000\360a@\000\000\000\000\000\340P@\000\000\000\000\000 \\@\000\000\000\000\000\240W@\000\000\000\000\000Pi@\000\000\000\000\000\300X@\000\000\000\000\000\340`@\000\000\000\000\000\340`@\000\000\000\000\000 l@\000\000\000\000\000@d@\000\000\000\000\000@^@\000\000\000\000\000`^@\000\000\000\000\000\240X@\000\000\000\000\000 l@\000\000\000\000\000\300C@\000\000\000\000\000 l@\000\000\000\000\000\260c@\000\000\000\000\000\340`@\000\000\000\000\000\200f@\000\000\000\000\000\250e@\000\000\000\000\000`^@\000\000\000\000\000Pi@\000\000\000\000\000\200V@\000\000\000\000\000@]@\000\000\000\000\000\000p@\000\000\000\000\000\360a@\000\000\000\000\000\310f@\000\000\000\000\000\340`@\000\000\000\000\000\260c@\000\000\000\000\000 \\@\000\000\000\000\000\340P@\000\000\000\000\000\300d@\000\000\000\000\000\340`@\000\000\000\000\000\360n@\000\000\000\000\000\000O@\000\000\000\000\000 \\@\000\000\000\000\000\260c@\000\000\000\000\000\200f@\000\000\000\000\000\340`@\000\000\000\000\000 l@\000\000\000\000\000Pi@\000\000\000\000\000\010y@\000\000\000\000\000\340`@\000\000\000\000\000\220g@\000\000\000\000\000 l@\000\000\000\000\000\000S@\000\000\000\000\000 \\@\000\000\000\000\000\360a@\000\000\000\000\000\340`@\000\000\000\000\000@^@\000\000\000\000\000Pi@\000\000\000\000\000\240X@\000\000\000\000\000\340[@\000\000\000\000\000\240X@\000\000\000\000\000\360q@\000\000\000\000\000\200V@\000\000\000\000\000 l@\000\000\000\000\000\260s@\000\000\000\000\000\000c@\000\000\000\000\000\200f@\000\000\000\000\000\300X@\000\000\000\000\000\340`@\000\000\000\000\000@U@\000\000\000\000\000\340`@\000\000\000\000\000\320r@\000\000\000\000\000\260c@\000\000\000\000\000\000S@\000\000\000\000\0008t@\000\000\000\000\000 \\@\000\000\000\000\000\200f@\000\000\000\000\000@`@\000\000\000\000\000\360a@\000\000\000\000\000\260c@\000\000\000\000\000 l@\000\000\000\000\000\210t@\000\000\000\000\000\240h@\000\000\000\000\000\340`@\000\000\000\000\000\000S@\000\000\000\000\000\340Y@\000\000\000\000\000\200V@\000\000\000\000\000 \\@\000\000\000\000\000Pi@\000\000\000\000\000`j@\000\000\000\000\000\200V@\000\000\000\000\000 l@\000\000\000\000\000\200o@\000\000\000\000\000Pi@\000\000\000\000\000 S@\000\000\000\000\000\260c@\000\000\000\000\000\200f@\000\000\000\000\000\200f@\315\314\314\314\314\204]@\000\000\000\000\000`j@\000\000\000\000\000\240u@\000\000\000\000\000\340`@\000\000\000\000\000\200_@\000\000\000\000\000P\200@\000\000\000\000\000\300X@\000\000\000\000\000\300d@\000\000\000\000\000 \\@\000\000\000\000\000\000c@\000\000\000\000\000\340P@\000\000\000\000\000\200y@\000\000\000\000\000hq@\000\000\000\000\000\340e@\000\000\000\000\000@^@\000\000\000\000\000\300d@\000\000\000\000\000\300J@\000\000\000\000\000\200f@\000\000\000\000\000@a@\000\000\000\000\000\240X@\000\000\000\000\000\000S@\000\000\000\000\000\020c@\000\000\000\000\000 l@\000\000\000\000\000 l@\000\000\000\000\000@T@\000\000\000\000\000 \\@\000\000\000\000\000`e@\000\000\000\000\000\300C@\000\000\000\000\000\300X@\000\000\000\000\000 \\@\000\000\000\000\000\340`@\000\000\000\000\000\260c@\000\000\000\000\000\340`@\000\000\000\000\000 \\@\000\000\000\000\000\200_@\000\000\000\000\000 \\@\252\361\322Mb$e@\000\000\000\000\000\200f@\000\000\000\000\000 \\@\000\000\000\000\000Pi@\000\000\000\000\000\340P@\000\000\000\000\000@^@\000\000\000\000\000\340Y@\000\000\000\000\000\220g@\000\000\000\000\000 \\@\000\000\000\000\000\300X@\000\000\000\000\000hs@\000\000\000\000\000@^@\000\000\000\000\000\340`@\000\000\000\000\000@m@\000\000\000\000\000`P@\000\000\000\000\000Pi@\000\000\000\000\000\000p@\000\000\000\000\000\360n@\000\000\000\000\000@^@\000\000\000\000\000\260c@\000\000\000\000\000`^@\000\000\000\000\000Hr@\000\000\000\000\000 |@\000\000\000\000\000Pi@\000\000\000\000\000\260s@\000\000\000\000\000\300d@\000\000\000\000\000Pi@\000\000\000\000\0000`@\000\000\000\000\000`j@\000\000\000\000\000 \\@\000\000\000\000\000 \\@\000\000\000\000\000\240c@\000\000\000\000\000\340`@\000\000\000\000\000\320r@\000\000\000\000\000 l@\000\000\000\000\000Pi@\000\000\000\000\000\340`@\000\000\000\000\000\340P@\000\000\000\000\000 l@\000\000\000\000\000P`@\000\000\000\000\000 U@\000\000\000\000\0000`@\000\000\000\000\000\200V@\000\000\000\000\000\340`@\000\000\000\000\000\340p@\000\000\000\000\000\340P@\000\000\000\000\000@T@\000\000\000\000\0000m@\000\000\000\000\000\340`@\000\000\000\000\000\260s@\000\000\000\000\000\000H@\000\000\000\000\000 \\@\000\000\000\000\000\340p@\000\000\000\000\000@^@\000\000\000\000\000\200f@\000\000\000\000\000\200f@\000\000\000\000\000\000\\@\000\000\000\000\000\340R@33333\223c@\000\000\000\000\000`j@\000\000\000\000\000 \\@\000\000\000\000\000\260c@\000\000\000\000\000hq@\000\000\000\000\000\260c@\000\000\000\000\000 U@\000\000\000\000\000\260s@\000\000\000\000\000\240X@\000\000\000\000\000Pi@\000\000\000\000\000\300d@\000\000\000\000\000\000S@\000\000\000\000\000\200f@\000\000\000\000\000 \\@\000\000\000\000\000Hr@\000\000\000\000\000@^@\000\000\000\000\000\000O@\000\000\000\000\000\300d@\000\000\000\000\000\340p@\000\000\000\000\000\360a@\000\000\000\000\000 \\@\000\000\000\000\000\200f@\000\000\000\000\000 \\@\000\000\000\000\000`U@\000\000\000\000\000P\211@\000\000\000\000\000@T@\000\000\000\000\000\220g@\000\000\000\000\000\320r@\000\000\000\000\000\000S@J\014\002+\207<m@\000\000\000\000\000 l@\000\000\000\000\000 l@\000\000\000\000\000\200f@\000\000\000\000\000\300C@\000\000\000\000\000@W@fffffFV@\000\000\000\000\000\000p@\000\000\000\000\000pj@\000\000\000\000\000\300d@\000\000\000\000\000\260c@\000\000\000\000\000\340P@\000\000\000\000\000\360n@\000\000\000\000\000\300d@\000\000\000\000\000\340`@\000\000\000\000\000@^@\000\000\000\000\000\260s@\000\000\000\000\000\300J@!\260rh\221\031j@\000\000\000\000\000@O@\000\000\000\000\000\200f@\000\000\000\000\000 U@\000\000\000\000\000\340P@\000\000\000\000\000`^@\000\000\000\000\000 \\@\000\000\000\000\000Pi@\000\000\000\000\000@^@\000\000\000\000\000\340p@\000\000\000\000\000\200X@\000\000\000\000\000\260c@\000\000\000\000\000\200f@\000\000\000\000\000\360a@\000\000\000\000\000\340`@\242E\266\363\375\034X@\000\000\000\000\000 S@\000\000\000\000\000\260c@\000\000\000\000\000`j@\000\000\000\000\000\360a@\000\000\000\000\000\220w@\000\000\000\000\000\300h@\000\000\000\000\000\200V@\000\000\000\000\000\200f@\000\000\000\000\000\340`@\000\000\000\000\000\200_@\000\000\000\000\000\260c@\000\000\000\000\000@\203@\000\000\000\000\000\260c@\000\000\000\000\0000m@\000\000\000\000\000\300d@\000\000\000\000\000\200_@\000\000\000\000\000Hr@\000\000\000\000\000\200f@\000\000\000\000\000\310t@\000\000\000\000\000pk@\000\000\000\000\000Pi@\000\000\000\000\000\340`@\000\000\000\000\000\340P@\000\000\000\000\000\360a@\000\000\000\000\000 U@\000\000\000\000\000\310v@\000\000\000\000\000 \\@\000\000\000\000\000\340p@\000\000\000\000\000\240X@\000\000\000\000\000\000S@\000\000\000\000\000\340Y@\000\000\000\000\000\000b@\000\000\000\000\000\000c@\000\000\000\000\000Pi@\000\000\000\000\000\360a@\000\000\000\000\000 l@33333\233a@\000\000\000\000\000\030u@\000\000\000\000\000\320`@\000\000\000\000\000\320d@\000\000\000\000\000 \\@H\341z\024\256?S@\000\000\000\000\000\200o@\000\000\000\000\000\300d@\000\000\000\000\000\360f@\000\000\000\000\000@n@\000\000\000\000\000\200f@\000\000\000\000\000\260c@\000\000\000\000\000 \\@\000\000\000\000\000 \\@\000\000\000\000\000\300Z@\000\000\000\000\000Pi@\000\000\000\000\000 l@\000\000\000\000\000\340e@\000\000\000\000\000\270q@\000\000\000\000\000`j@\000\000\000\000\000\200V@\000\000\000\000\000\200f@\000\000\000\000\000\340`@\000\000\000\000\000 \\@1\010\254\034ZZm@\000\000\000\000\000\340P@\000\000\000\000\000 \\@\000\000\000\000\000`j@\000\000\000\000\000\360a@\000\000\000\000\000 U@\000\000\000\000\000\200f@\000\000\000\000\000Hr@\000\000\000\000\0000`@\000\000\000\000\000\000R@\000\000\000\000\000 \\@\000\000\000\000\000\300d@\000\000\000\000\000\200v@\000\000\000\000\000\300Z@\000\000\000\000\000\000p@\000\000\000\000\000\000b@\000\000\000\000\000`^@\000\000\000\000\000@n@\000\000\000\000\000 S@\000\000\000\000\000\000S@\000\000\000\000\000\340`@\000\000\000\000\000\200V@\000\000\000\000\000@i@\000\000\000\000\000\000R@\000\000\000\000\000\240X@\000\000\000\000\000 \\@\000\000\000\000\000Pi@\000\000\000\000\000\340p@\000\000\000\000\000\300Z@\000\000\000\000\000\300d@\000\000\000\000\000\000S@\000\000\000\000\000\340i@\000\000\000\000\000\200f@\000\000\000\000\000\200f@\000\000\000\000\000\260c@\000\000\000\000\000 \\@\000\000\000\000\0000m@\000\000\000\000\000\200V@\000\000\000\000\000\000p@\000\000\000\000\000Po@\000\000\000\000\000\240u@\000\000\000\000\000 l@\000\000\000\000\000\220g@\000\000\000\000\000\260c@\000\000\000\000\000\340e@\000\000\000\000\000 S@\000\000\000\000\000Pi@\000\000\000\000\000\240h@\000\000\000\000\000Pi@\000\000\000\000\000\260c@\000\000\000\000\000`_@\000\000\000\000\000\220g@\000\000\000\000\000\200v@\000\000\000\000\000\260c@\000\000\000\000\000\340P@\000\000\000\000\000\200_@\000\000\000\000\000\220g@\000\000\000\000\000 l@\000\000\000\000\000Hr@\000\000\000\000\000\260c@\000\000\000\000\000\020c@\000\000\000\000\000\360a@\000\000\000\000\000\260c@\000\000\000\000\000\200v@\315\314\314\314\314\314\\@\000\000\000\000\000\200X@\000\000\000\000\000\300h@\000\000\000\000\000\360a@\000\000\000\000\000\340P@\000\000\000\000\000 \\@\000\000\000\000\000\000\\@\000\000\000\000\000 \\@\000\000\000\000\000Pi@\000\000\000\000\000 \\@\000\000\000\000\000\200V@\000\000\000\000\000\200f@\000\000\000\000\000\340`@\000\000\000\000\000 \\@\000\000\000\000\000\260c@\000\000\000\000\000\200f@\000\000\000\000\000\200V@\000\000\000\000\000 \\@\000\000\000\000\000\240X@\000\000\000\000\000Pi@\000\000\000\000\000Pi@\000\000\000\000\000\360a@\000\000\000\000\000\340`@\000\000\000\000\000\360a@\000\000\000\000\000\340`@\000\000\000\000\000`j@\000\000\000\000\000\200_@\000\000\000\000\000 \\@\000\000\000\000\000\340Z@\000\000\000\000\000\360n@\000\000\000\000\000\220w@\000\000\000\000\000\200V@\000\000\000\000\000\030u@\000\000\000\000\000\220g@\000\000\000\000\000\200f@\000\000\000\000\000\000O@\000\000\000\000\000\240X@\000\000\000\000\000\300Q@\000\000\000\000\000\300J@\000\000\000\000\000\200f@\000\000\000\000\000Pi@\000\000\000\000\000\200f@\000\000\000\000\000\200_@\000\000\000\000\000\300d@\000\000\000\000\000\320m@\000\000\000\000\000Hr@\000\000\000\000\000\200_@\000\000\000\000\000 U@\000\000\000\000\000\000p@\000\000\000\000\000\300P@\000\000\000\000\000\260c@\000\000\000\000\000 \\@\000\000\000\000\000\000b@\000\000\000\000\000\200f@\000\000\000\000\000\260c@\000\000\000\000\000\000O@\000\000\000\000\000 |@\000\000\000\000\000\260\203@\000\000\000\000\000@O@\000\000\000\000\000\260s@\270\036\205\353QDm@\000\000\000\000\000 `@\000\000\000\000\000\000p@\000\000\000\000\000\260c@\000\000\000\000\000\200V@\000\000\000\000\000\220g@\000\000\000\000\000\360a@\000\000\000\000\000Hr@\000\000\000\000\000\340P@\000\000\000\000\000\200f@\000\000\000\000\000 \\@\000\000\000\000\000\360n@\000\000\000\000\000\200f@\000\000\000\000\000 U@\000\000\000\000\000\000p@\000\000\000\000\000\360a@\000\000\000\000\000\340`@\000\000\000\000\000\260c@\000\000\000\000\000`e@\000\000\000\000\000Hr@\000\000\000\000\000 c@\000\000\000\000\000Pi@\000\000\000\000\000\260s@\000\000\000\000\000\260c@\000\000\000\000\000\300Z@\000\000\000\000\000\000S@\000\000\000\000\000@{@\000\000\000\000\000\200V@\000\000\000\000\000\260c@\000\000\000\000\000@T@\000\000\000\000\000hq@\000\000\000\000\000\340p@\000\000\000\000\000\300Z@\000\000\000\000\000@]@\000\000\000\000\000pa@\000\000\000\000\000\200f@\000\000\000\000\000\300C@\000\000\000\000\000Hr@\000\000\000\000\000\240u@\000\000\000\000\000\360n@\000\000\000\000\000`j@\000\000\000\000\000 l@\000\000\000\000\000\240X@\000\000\000\000\000\000D@\000\000\000\000\000Pi@\000\000\000\000\000\200V@\000\000\000\000\000 l@\000\000\000\000\000\260c@\000\000\000\000\000\200f@\000\000\000\000\000 \\@\000\000\000\000\000\200f@\000\000\000\000\000 l@\000\000\000\000\000 l@\000\000\000\000\000\240w@\000\000\000\000\000Pi@fffff\2469@\000\000\000\000\000 \\@\000\000\000\000\0000m@\000\000\000\000\000\340Z@\000\000\000\000\000\260s@\000\000\000\000\000\200V@\000\000\000\000\000\240X@\000\000\000\000\000\240X@\000\000\000\000\000\340P@\000\000\000\000\000\260s@\000\000\000\000\000 \\@\000\000\000\000\000 s@\000\000\000\000\000\340`@\000\000\000\000\000\340`@\000\000\000\000\000\240g@\000\000\000\000\000 l@\000\000\000\000\000\340Z@\000\000\000\000\000\000c@\000\000\000\000\000\340e@\000\000\000\000\000\360n@\000\000\000\000\000`e@\000\000\000\000\000 S@\000\000\000\000\000@U@\000\000\000\000\000 U@\000\000\000\000\000\200V@\000\000\000\000\000\220g@\000\000\000\000\000@a@\000\000\000\000\000\340`@\000\000\000\000\000\260c@\000\000\000\000\000@L@\000\000\000\000\000@^@\000\000\000\000\000\360a@\000\000\000\000\000\260c@\000\000\000\000\000@W@\000\000\000\000\000@O@\000\000\000\000\000\300d@\000\000\000\000\000\300C@\000\000\000\000\000\340`@\000\000\000\000\000Xs@\000\000\000\000\000\260s@\000\000\000\000\000 l@\000\000\000\000\000\200f@\000\000\000\000\000\300Z@\000\000\000\000\000\360n@\000\000\000\000\000\200k@\000\000\000\000\000\000K@\000\000\000\000\000\200V@\000\000\000\000\000\240X@\000\000\000\000\000`e@\000\000\000\000\000@^@\000\000\000\000\000\200V@\000\000\000\000\000 \\@\000\000\000\000\000@T@\000\000\000\000\000\300X@\000\000\000\000\000`^@\000\000\000\000\000\260c@\000\000\000\000\000\240I@\000\000\000\000\000\300Q@\000\000\000\000\000`j@\000\000\000\000\000\340`@\000\000\000\000\000\200V@\000\000\000\000\000\340`@\000\000\000\000\000\200V@\000\000\000\000\000\320r@\000\000\000\000\000 \\@\000\000\000\000\000\300d@\000\000\000\000\000\240Q@\000\000\000\000\000 l@\000\000\000\000\000 \\@\000\000\000\000\000\000b@\000\000\000\000\000\000k@\000\000\000\000\000\260c@\000\000\000\000\000hq@\000\000\000\000\000 l@\000\000\000\000\000\340`@\000\000\000\000\000\200f@\000\000\000\000\000 l@\000\000\000\000\000Pi@\000\000\000\000\000\000[@\000\000\000\000\000 l@\000\000\000\000\000\320r@\000\000\000\000\000 ^@\000\000\000\000\000\340`@\000\000\000\000\000\360n@\000\000\000\000\000Py@\000\000\000\000\000\260s@\000\000\000\000\000\000T@\000\000\000\000\000\300Z@\000\000\000\000\000\260c@\000\000\000\000\000@n@\000\000\000\000\000\360a@\000\000\000\000\000\340a@\000\000\000\000\000\260c@\000\000\000\000\0000P@\000\000\000\000\000`j@\000\000\000\000\000\360a@\000\000\000\000\000\300d@\000\000\000\000\000 \\@\000\000\000\000\000\300x@\000\000\000\000\000`e@\000\000\000\000\000`^@\000\000\000\000\000\300C@\000\000\000\000\000@T@\000\000\000\000\000\260c@\000\000\000\000\000\240h@\000\000\000\000\000@T@\000\000\000\000\000\000S@\000\000\000\000\000 \\@\000\000\000\000\000\260c@\000\000\000\000\000\000\\@\000\000\000\000\000\200_@\000\000\000\000\000\340P@\000\000\000\000\000 \\@\000\000\000\000\000\320d@\000\000\000\000\000@]@\000\000\000\000\000 \\@\000\000\000\000\000\360a@\000\000\000\000\000\340`@\000\000\000\000\000\240g@\000\000\000\000\000\000c@\000\000\000\000\000\340`@\000\000\000\000\000 \\@\000\000\000\000\000\320d@\000\000\000\000\000\340`@\000\000\000\000\000\340`@\000\000\000\000\000\200V@\000\000\000\000\000\340Y@\000\000\000\000\000\200f@\000\000\000\000\000 \\@\000\000\000\000\000\020w@\000\000\000\000\000\200v@\000\000\000\000\000 \\@\000\000\000\000\000\300P@\000\000\000\000\000@T@\000\000\000\000\000\260c@\000\000\000\000\000 \\@\000\000\000\000\000\200f@\232\231\231\231\231YE@\000\000\000\000\000\260c@\000\000\000\000\000 \\@\000\000\000\000\000\330k@\000\000\000\000\000\340`@\000\000\000\000\000\240u@\000\000\000\000\000\200f@\000\000\000\000\0000`@\000\000\000\000\000@n@\000\000\000\000\0008t@\000\000\000\000\000\000[@\000\000\000\000\000\320r@\000\000\000\000\000\360a@\000\000\000\000\000\000p@\000\000\000\000\000\200f@\000\000\000\000\000 \\@\000\000\000\000\000\000O@\000\000\000\000\000\340p@\000\000\000\000\000\260c@\000\000\000\000\000\200f@\000\000\000\000\000\340`@\000\000\000\000\000\260h@\000\000\000\000\000\220g@\000\000\000\000\000 \\@\000\000\000\000\000 \\@\000\000\000\000\000 l@\000\000\000\000\000\240c@\000\000\000\000\000\260c@\000\000\000\000\000\200V@\000\000\000\000\000\200f@\000\000\000\000\000\260c@\000\000\000\000\000 \\@\000\000\000\000\000 |@\000\000\000\000\000@n@\000\000\000\000\000\340`@\000\000\000\000\000\340\200@\000\000\000\000\000\000H@\000\000\000\000\000 \\@\000\000\000\000\000\000[@\000\000\000\000\000\340P@\000\000\000\000\000\240X@\000\000\000\000\000 l@\000\000\000\000\000`j@\000\000\000\000\000Pi@\000\000\000\000\0008\204@\000\000\000\000\000\2005@\000\000\000\000\000\260c@\000\000\000\000\000\260c@\000\000\000\000\000\260c@\000\000\000\000\000Pi@\000\000\000\000\000\000p@\000\000\000\000\000@n@\000\000\000\000\000\340a@\000\000\000\000\000`j@\000\000\000\000\000 \\@\000\000\000\000\000\340`@\000\000\000\000\000@U@\000\000\000\000\000\340p@\000\000\000\000\000\000?@\000\000\000\000\000\300d@\000\000\000\000\000 l@\000\000\000\000\000\340P@\000\000\000\000\000\340e@\000\000\000\000\000\260s@\000\000\000\000\000\340`@\000\000\000\000\000@^@\000\000\000\000\000\300d@\000\000\000\000\000 l@\000\000\000\000\000\200k@\000\000\000\000\000\220r@\000\000\000\000\000\260c@\000\000\000\000\000\000b@\000\000\000\000\000`e@\000\000\000\000\000\010`@\000\000\000\000\000`e@\000\000\000\000\000\300m@\000\000\000\000\000\320d@\000\000\000\000\000(b@\000\000\000\000\000\000\\@\000\000\000\000\000 |@\000\000\000\000\000\240g@\000\000\000\000\000\340p@\000\000\000\000\000\320e@\000\000\000\000\000\340`@\000\000\000\000\000\200f@\000\000\000\000\000 \\@\000\000\000\000\000\200W@\000\000\000\000\000\360a@\000\000\000\000\000@^@\000\000\000\000\000\000S@\000\000\000\000\000\200V@\000\000\000\000\000@^@\000\000\000\000\000 l@\000\000\000\000\000`^@\000\000\000\000\000 U@\000\000\000\000\000@^@\000\000\000\000\0008t@\000\000\000\000\000\360f@\000\000\000\000\000\360a@\000\000\000\000\000\000]@\000\000\000\000\000\360q@\000\000\000\000\000\340`@\000\000\000\000\000`j@\000\000\000\000\000\340p@\000\000\000\000\000\340`@\000\000\000\000\000\000b@\000\000\000\000\000Hr@\000\000\000\000\000\320r@\000\000\000\000\000\300d@\000\000\000\000\000\200f@\000\000\000\000\000\300d@\000\000\000\000\000\000S@\000\000\000\000\000\300J@\000\000\000\000\000@^@\000\000\000\000\000\260s@\000\000\000\000\000\260c@\000\000\000\000\000\300Z@\000\000\000\000\000\300d@\000\000\000\000\000\000O@\000\000\000\000\000\010u@\000\000\000\000\000\360n@\000\000\000\000\000\360n@\000\000\000\000\000\360a@\000\000\000\000\000\340`@\000\000\000\000\000@n@\000\000\000\000\000\000S@\000\000\000\000\000\200V@\000\000\000\000\000\240W@\000\000\000\000\000\340p@\000\000\000\000\000\200V@\000\000\000\000\000\200_@\000\000\000\000\000\300d@\000\000\000\000\000`j@\000\000\000\000\000 l@\000\000\000\000\000\240X@\000\000\000\000\000\000\\@\232\231\231\231\231\201r@\000\000\000\000\000 \\@\000\000\000\000\000\020c@\000\000\000\000\000\360j@\000\000\000\000\000\200f@\000\000\000\000\000\240X@\000\000\000\000\000\200V@\000\000\000\000\000P`@\000\000\000\000\000@`@\000\000\000\000\000\260c@\000\000\000\000\000\200f@\000\000\000\000\000\200f@\000\000\000\000\000@n@\000\000\000\000\000 \\@\000\000\000\000\000hq@\000\000\000\000\000 \\@\000\000\000\000\000 ]@\000\000\000\000\000 \\@\000\000\000\000\000\260c@\000\000\000\000\000\220g@\000\000\000\000\000 S@\000\000\000\000\000\340P@\254\034Zd;\027H@\000\000\000\000\000\340`@\000\000\000\000\000xx@\000\000\000\000\000 \\@\000\000\000\000\000\340Y@\000\000\000\000\000 \\@\000\000\000\000\000\360n@\000\000\000\000\000 S@\000\000\000\000\000 \\@\000\000\000\000\000\200V@\000\000\000\000\000Pi@\000\000\000\000\000\220g@\000\000\000\000\000\340p@\000\000\000\000\000Pi@\000\000\000\000\000\340p@\000\000\000\000\000 \\@\000\000\000\000\000\340`@\000\000\000\000\000\300d@\000\000\000\000\000\200f@\000\000\000\000\000@^@\000\000\000\000\000\300d@\000\000\000\000\000 l@\000\000\000\000\000`j@\000\000\000\000\000\340p@\000\000\000\000\000\200V@\000\000\000\000\000\200f@\000\000\000\000\000 \\@\000\000\000\000\0000`@\000\000\000\000\000\320r@\000\000\000\000\000\000p@\000\000\000\000\000\000c@\000\000\000\000\000\340p@\000\000\000\000\000 |@\000\000\000\000\000\220b@\000\000\000\000\0000`@\000\000\000\000\000 l@\000\000\000\000\000\260c@\000\000\000\000\000\200V@\000\000\000\000\000\260c@\000\000\000\000\000\200V@\000\000\000\000\000`j@\000\000\000\000\000\200V@\000\000\000\000\000 l@\000\000\000\000\000`e@\000\000\000\000\000\200f@\000\000\000\000\000\340`@\000\000\000\000\000\000O@\000\000\000\000\000\350w@\000\000\000\000\000\260c@\000\000\000\000\000`f@\000\000\000\000\000@`@\000\000\000\000\000\300Z@\000\000\000\000\000\360a@\000\000\000\000\000\340p@\000\000\000\000\000`^@\000\000\000\000\000\240X@\000\000\000\000\000\360u@\000\000\000\000\000\000b@\000\000\000\000\000 \\@\000\000\000\000\000\200V@\000\000\000\000\000`j@\000\000\000\000\000 U@\000\000\000\000\000\340p@\000\000\000\000\000\000M@\000\000\000\000\000\320r@\000\000\000\000\000\240Q@\000\000\000\000\000Py@\000\000\000\000\000\260c@\000\000\000\000\000\260c@\000\000\000\000\000Hr@\000\000\000\000\000\300d@\000\000\000\000\000\200F@\000\000\000\000\000\340`@\000\000\000\000\000\260c@\000\000\000\000\000\340`@\000\000\000\000\000\200f@\000\000\000\000\000\030s@\000\000\000\000\000@n@\000\000\000\000\000\360a@\000\000\000\000\000\260c@\000\000\000\000\000\340`@\000\000\000\000\000\300C@\000\000\000\000\000\340Y@\000\000\000\000\000\260s@\000\000\000\000\000\320T@\000\000\000\000\000\260c@\000\000\000\000\000 U@\000\000\000\000\000\000p@\000\000\000\000\000\260c@\031\004V\016-m|@\000\000\000\000\000\260c@\000\000\000\000\000\200f@\000\000\000\000\000\200f@\000\000\000\000\000@d@\000\000\000\000\000@T@\000\000\000\000\000\340`@\000\000\000\000\000`e@\000\000\000\000\000 \\@\000\000\000\000\000\260c@\000\000\000\000\000\340P@\000\000\000\000\000\220g@\000\000\000\000\000\340`@\000\000\000\000\000Hr@\000\000\000\000\000Hr@\000\000\000\000\000Pi@\000\000\000\000\000\340P@\000\000\000\000\000\200V@\000\000\000\000\000`j@\000\000\000\000\000 l@\000\000\000\000\000\260c@\000\000\000\000\000\240X@\000\000\000\000\000\200V@\000\000\000\000\000\220b@\000\000\000\000\000\200V@\000\000\000\000\000\260s@\354Q\270\036\205;P@\000\000\000\000\000@n@\000\000\000\000\000\340p@\000\000\000\000\000\340Y@\000\000\000\000\000\330r@\000\000\000\000\000@W@\000\000\000\000\000\200f@\000\000\000\000\000\260c@\000\000\000\000\000\260c@\000\000\000\000\000\340p@\000\000\000\000\000\340Y@\000\000\000\000\000Pi@\000\000\000\000\000\000\'@\000\000\000\000\000 l@\000\000\000\000\000\340P@\000\000\000\000\000pQ@\000\000\000\000\000\360a@\000\000\000\000\000\000S@\000\000\000\000\000\340P@\000\000\000\000\000Hr@\000\000\000\000\000\340`@\000\000\000\000\000pa@\000\000\000\000\000\300Q@\000\000\000\000\000\260c@\000\000\000\000\000\000H@\000\000\000\000\000\340Z@\000\000\000\000\000\300C@\000\000\000\000\000\000c@\000\000\000\000\000\300d@\000\000\000\000\000\300Z@\000\000\000\000\000`e@\000\000\000\000\000\220g@\000\000\000\000\000\300t@\000\000\000\000\000\000b@\000\000\000\000\000Pi@\000\000\000\000\000 \\@\000\000\000\000\000\340`@\000\000\000\000\000\000S@\000\000\000\000\000 |@\000\000\000\000\000Hr@\000\000\000\000\000\340p@\000\000\000\000\000@d@\000\000\000\000\0000`@\000\000\000\000\0000`@\000\000\000\000\000\260s@\000\000\000\000\000 l@\000\000\000\000\000pj@\000\000\000\000\000 l@\000\000\000\000\000\300Z@\000\000\000\000\000\340i@\000\000\000\000\000\340P@\000\000\000\000\000 |@\000\000\000\000\000Pi@\000\000\000\000\000\340`@\000\000\000\000\000\000D@\000\000\000\000\000 l@\000\000\000\000\000\360n@\000\000\000\000\000\360a@\000\000\000\000\000\260c@\000\000\000\000\000\340R@\000\000\000\000\000\300X@\000\000\000\000\000 \\@\000\000\000\000\000\200V@\000\000\000\000\000\340`@\000\000\000\000\000\200f@\000\000\000\000\000\340P@\000\000\000\000\000\300d@\000\000\000\000\000\300J@\000\000\000\000\000Pi@\000\000\000\000\000\260c@\000\000\000\000\000\200W@\000\000\000\000\000Pi@\000\000\000\000\000\200v@\000\000\000\000\000\260c@\000\000\000\000\000 U@\000\000\000\000\000\200V@\000\000\000\000\000\340`@\000\000\000\000\000 l@\000\000\000\000\000 \\@\000\000\000\000\000\340P@\000\000\000\000\000\200f@\000\000\000\000\000 